{"[CLS]": 0, "[SEP]": 1, "[PAD]": 2, "[UNK]": 3, "start": 4, "end": 5, "melody": 6, "accomp0": 7, "accomp1": 8, "accomp2": 9, "accomp3": 10, "accomp4": 11, "accomp5": 12, "accomp6": 13, "accomp7": 14, "accomp8": 15, "accomp9": 16, "accomp10": 17, "accomp11": 18, "accomp12": 19, "accomp13": 20, "accomp14": 21, "accomp15": 22, "accomp16": 23, "accomp17": 24, "accomp18": 25, "accomp19": 26, "tempo10": 27, "tempo11": 28, "tempo12": 29, "tempo13": 30, "tempo14": 31, "tempo15": 32, "tempo16": 33, "tempo17": 34, "tempo18": 35, "tempo19": 36, "tempo20": 37, "tempo21": 38, "tempo22": 39, "tempo23": 40, "tempo24": 41, "tempo25": 42, "tempo26": 43, "tempo27": 44, "tempo28": 45, "tempo29": 46, "tempo30": 47, "tempo31": 48, "tempo32": 49, "tempo33": 50, "tempo34": 51, "tempo35": 52, "tempo36": 53, "tempo37": 54, "tempo38": 55, "tempo39": 56, "tempo40": 57, "tempo41": 58, "tempo42": 59, "tempo43": 60, "tempo44": 61, "tempo45": 62, "tempo46": 63, "tempo47": 64, "tempo48": 65, "tempo49": 66, "tempo50": 67, "tempo51": 68, "tempo52": 69, "tempo53": 70, "tempo54": 71, "tempo55": 72, "tempo56": 73, "tempo57": 74, "tempo58": 75, "tempo59": 76, "tempo60": 77, "tempo61": 78, "tempo62": 79, "tempo63": 80, "tempo64": 81, "tempo65": 82, "tempo66": 83, "tempo67": 84, "tempo68": 85, "tempo69": 86, "tempo70": 87, "tempo71": 88, "tempo72": 89, "tempo73": 90, "tempo74": 91, "tempo75": 92, "tempo76": 93, "tempo77": 94, "tempo78": 95, "tempo79": 96, "tempo80": 97, "tempo81": 98, "tempo82": 99, "tempo83": 100, "tempo84": 101, "tempo85": 102, "tempo86": 103, "tempo87": 104, "tempo88": 105, "tempo89": 106, "tempo90": 107, "tempo91": 108, "tempo92": 109, "tempo93": 110, "tempo94": 111, "tempo95": 112, "tempo96": 113, "tempo97": 114, "tempo98": 115, "tempo99": 116, "tempo100": 117, "tempo101": 118, "tempo102": 119, "tempo103": 120, "tempo104": 121, "tempo105": 122, "tempo106": 123, "tempo107": 124, "tempo108": 125, "tempo109": 126, "tempo110": 127, "tempo111": 128, "tempo112": 129, "tempo113": 130, "tempo114": 131, "tempo115": 132, "tempo116": 133, "tempo117": 134, "tempo118": 135, "tempo119": 136, "tempo120": 137, "tempo121": 138, "tempo122": 139, "tempo123": 140, "tempo124": 141, "tempo125": 142, "tempo126": 143, "tempo127": 144, "tempo128": 145, "tempo129": 146, "tempo130": 147, "tempo131": 148, "tempo132": 149, "tempo133": 150, "tempo134": 151, "tempo135": 152, "tempo136": 153, "tempo137": 154, "tempo138": 155, "tempo139": 156, "tempo140": 157, "tempo141": 158, "tempo142": 159, "tempo143": 160, "tempo144": 161, "tempo145": 162, "tempo146": 163, "tempo147": 164, "tempo148": 165, "tempo149": 166, "tempo150": 167, "tempo151": 168, "tempo152": 169, "tempo153": 170, "tempo154": 171, "tempo155": 172, "tempo156": 173, "tempo157": 174, "tempo158": 175, "tempo159": 176, "tempo160": 177, "tempo161": 178, "tempo162": 179, "tempo163": 180, "tempo164": 181, "tempo165": 182, "tempo166": 183, "tempo167": 184, "tempo168": 185, "tempo169": 186, "tempo170": 187, "tempo171": 188, "tempo172": 189, "tempo173": 190, "tempo174": 191, "tempo175": 192, "tempo176": 193, "tempo177": 194, "tempo178": 195, "tempo179": 196, "tempo180": 197, "tempo181": 198, "tempo182": 199, "tempo183": 200, "tempo184": 201, "tempo185": 202, "tempo186": 203, "tempo187": 204, "tempo188": 205, "tempo189": 206, "tempo190": 207, "tempo191": 208, "tempo192": 209, "tempo193": 210, "tempo194": 211, "tempo195": 212, "tempo196": 213, "tempo197": 214, "tempo198": 215, "tempo199": 216, "tempo200": 217, "v0": 218, "v1": 219, "v2": 220, "v3": 221, "v4": 222, "v5": 223, "v6": 224, "v7": 225, "v8": 226, "v9": 227, "v10": 228, "v11": 229, "v12": 230, "v13": 231, "v14": 232, "v15": 233, "v16": 234, "v17": 235, "v18": 236, "v19": 237, "v20": 238, "v21": 239, "v22": 240, "v23": 241, "v24": 242, "v25": 243, "v26": 244, "v27": 245, "v28": 246, "v29": 247, "v30": 248, "v31": 249, "v32": 250, "v33": 251, "v34": 252, "v35": 253, "v36": 254, "v37": 255, "v38": 256, "v39": 257, "v40": 258, "v41": 259, "v42": 260, "v43": 261, "v44": 262, "v45": 263, "v46": 264, "v47": 265, "v48": 266, "v49": 267, "v50": 268, "v51": 269, "v52": 270, "v53": 271, "v54": 272, "v55": 273, "v56": 274, "v57": 275, "v58": 276, "v59": 277, "v60": 278, "v61": 279, "v62": 280, "v63": 281, "v64": 282, "v65": 283, "v66": 284, "v67": 285, "v68": 286, "v69": 287, "v70": 288, "v71": 289, "v72": 290, "v73": 291, "v74": 292, "v75": 293, "v76": 294, "v77": 295, "v78": 296, "v79": 297, "v80": 298, "v81": 299, "v82": 300, "v83": 301, "v84": 302, "v85": 303, "v86": 304, "v87": 305, "v88": 306, "v89": 307, "v90": 308, "v91": 309, "v92": 310, "v93": 311, "v94": 312, "v95": 313, "v96": 314, "v97": 315, "v98": 316, "v99": 317, "v100": 318, "v101": 319, "v102": 320, "v103": 321, "v104": 322, "v105": 323, "v106": 324, "v107": 325, "v108": 326, "v109": 327, "v110": 328, "v111": 329, "v112": 330, "v113": 331, "v114": 332, "v115": 333, "v116": 334, "v117": 335, "v118": 336, "v119": 337, "v120": 338, "v121": 339, "v122": 340, "v123": 341, "v124": 342, "v125": 343, "v126": 344, "v127": 345, "A0": 346, "A#0": 347, "B-0": 348, "B0": 349, "C1": 349, "C#1": 350, "D-1": 351, "D1": 352, "D#1": 353, "E-1": 354, "E1": 355, "F-1": 356, "E#1": 357, "F1": 358, "F#1": 359, "G-1": 360, "G1": 361, "G#1": 362, "A-1": 363, "A1": 364, "A#1": 365, "B-1": 366, "B1": 367, "B#1": 368, "C-1": 369, "C2": 370, "C#2": 371, "D-2": 372, "D2": 373, "D#2": 374, "E-2": 375, "E2": 376, "F-2": 377, "E#2": 378, "F2": 379, "F#2": 380, "G-2": 381, "G2": 382, "G#2": 383, "A-2": 384, "A2": 385, "A#2": 386, "B-2": 387, "B2": 388, "B#2": 389, "C-2": 390, "C3": 391, "C#3": 392, "D-3": 393, "D3": 394, "D#3": 395, "E-3": 396, "E3": 397, "F-3": 398, "E#3": 399, "F3": 400, "F#3": 401, "G-3": 402, "G3": 403, "G#3": 404, "A-3": 405, "A3": 406, "A#3": 407, "B-3": 408, "B3": 409, "B#3": 410, "C-3": 411, "C4": 412, "C#4": 413, "D-4": 414, "D4": 415, "D#4": 416, "E-4": 417, "E4": 418, "F-4": 419, "E#4": 420, "F4": 421, "F#4": 422, "G-4": 423, "G4": 424, "G#4": 425, "A-4": 426, "A4": 427, "A#4": 428, "B-4": 429, "B4": 430, "B#4": 431, "C-4": 432, "C5": 433, "C#5": 434, "D-5": 435, "D5": 436, "D#5": 437, "E-5": 438, "E5": 439, "F-5": 440, "E#5": 441, "F5": 442, "F#5": 443, "G-5": 444, "G5": 445, "G#5": 446, "A-5": 447, "A5": 448, "A#5": 449, "B-5": 450, "B5": 451, "B#5": 452, "C-5": 453, "C6": 454, "C#6": 455, "D-6": 456, "D6": 457, "D#6": 458, "E-6": 459, "E6": 460, "F-6": 461, "E#6": 462, "F6": 463, "F#6": 464, "G-6": 465, "G6": 466, "G#6": 467, "A-6": 468, "A6": 469, "A#6": 470, "B-6": 471, "B6": 472, "B#6": 473, "C-6": 474, "C7": 475, "C#7": 476, "D-7": 477, "D7": 478, "D#7": 479, "E-7": 480, "E7": 481, "F-7": 482, "E#7": 483, "F7": 484, "F#7": 485, "G-7": 486, "G7": 487, "G#7": 488, "A-7": 489, "A7": 490, "A#7": 491, "B-7": 492, "B7": 493, "B#7": 494, "C-7": 495, "C8": 517, "wait:0": 518, "wait:1": 519, "wait:2": 520, "wait:3": 521, "wait:4": 522, "wait:5": 523, "wait:6": 524, "wait:7": 525, "wait:8": 526, "wait:9": 527, "wait:10": 528, "wait:11": 529, "wait:12": 530, "wait:13": 531, "wait:14": 532, "wait:15": 533, "wait:16": 534, "wait:17": 535, "wait:18": 536, "wait:19": 537, "wait:20": 538, "wait:21": 539, "wait:22": 540, "wait:23": 541, "wait:24": 542, "wait:25": 543, "wait:26": 544, "wait:27": 545, "wait:28": 546, "wait:29": 547, "wait:30": 548, "wait:31": 549, "wait:32": 550, "wait:33": 551, "wait:34": 552, "wait:35": 553, "wait:36": 554, "wait:37": 555, "wait:38": 556, "wait:39": 557, "wait:40": 558, "wait:41": 559, "wait:42": 560, "wait:43": 561, "wait:44": 562, "wait:45": 563, "wait:46": 564, "wait:47": 565, "wait:48": 566, "wait:49": 567, "wait:50": 568, "wait:51": 569, "wait:52": 570, "wait:53": 571, "wait:54": 572, "wait:55": 573, "wait:56": 574, "wait:57": 575, "wait:58": 576, "wait:59": 577, "wait:60": 578, "wait:61": 579, "wait:62": 580, "wait:63": 581, "wait:64": 582, "wait:65": 583, "wait:66": 584, "wait:67": 585, "wait:68": 586, "wait:69": 587, "wait:70": 588, "wait:71": 589, "wait:72": 590, "wait:73": 591, "wait:74": 592, "wait:75": 593, "wait:76": 594, "wait:77": 595, "wait:78": 596, "wait:79": 597, "wait:80": 598, "wait:81": 599, "wait:82": 600, "wait:83": 601, "wait:84": 602, "wait:85": 603, "wait:86": 604, "wait:87": 605, "wait:88": 606, "wait:89": 607, "wait:90": 608, "wait:91": 609, "wait:92": 610, "wait:93": 611, "wait:94": 612, "wait:95": 613, "wait:96": 614, "wait:97": 615, "wait:98": 616, "wait:99": 617, "wait:100": 618, "wait:101": 619, "wait:102": 620, "wait:103": 621, "wait:104": 622, "wait:105": 623, "wait:106": 624, "wait:107": 625, "wait:108": 626, "wait:109": 627, "wait:110": 628, "wait:111": 629, "wait:112": 630, "wait:113": 631, "wait:114": 632, "wait:115": 633, "wait:116": 634, "wait:117": 635, "wait:118": 636, "wait:119": 637, "wait:120": 638, "wait:121": 639, "wait:122": 640, "wait:123": 641, "wait:124": 642, "wait:125": 643, "wait:126": 644, "wait:127": 645, "wait:128": 646, "wait:129": 647, "wait:130": 648, "wait:131": 649, "wait:132": 650, "wait:133": 651, "wait:134": 652, "wait:135": 653, "wait:136": 654, "wait:137": 655, "wait:138": 656, "wait:139": 657, "wait:140": 658, "wait:141": 659, "wait:142": 660, "wait:143": 661, "wait:144": 662, "wait:145": 663, "wait:146": 664, "wait:147": 665, "wait:148": 666, "wait:149": 667, "wait:150": 668, "wait:151": 669, "wait:152": 670, "wait:153": 671, "wait:154": 672, "wait:155": 673, "wait:156": 674, "wait:157": 675, "wait:158": 676, "wait:159": 677, "wait:160": 678, "wait:161": 679, "wait:162": 680, "wait:163": 681, "wait:164": 682, "wait:165": 683, "wait:166": 684, "wait:167": 685, "wait:168": 686, "wait:169": 687, "wait:170": 688, "wait:171": 689, "wait:172": 690, "wait:173": 691, "wait:174": 692, "wait:175": 693, "wait:176": 694, "wait:177": 695, "wait:178": 696, "wait:179": 697, "wait:180": 698, "wait:181": 699, "wait:182": 700, "wait:183": 701, "wait:184": 702, "wait:185": 703, "wait:186": 704, "wait:187": 705, "wait:188": 706, "wait:189": 707, "wait:190": 708, "wait:191": 709, "wait:192": 710, "wait:193": 711, "wait:194": 712, "wait:195": 713, "wait:196": 714, "wait:197": 715, "wait:198": 716, "wait:199": 717, "wait:200": 718, "wait:201": 719, "wait:202": 720, "wait:203": 721, "wait:204": 722, "wait:205": 723, "wait:206": 724, "wait:207": 725, "wait:208": 726, "wait:209": 727, "wait:210": 728, "wait:211": 729, "wait:212": 730, "wait:213": 731, "wait:214": 732, "wait:215": 733, "wait:216": 734, "wait:217": 735, "wait:218": 736, "wait:219": 737, "wait:220": 738, "wait:221": 739, "wait:222": 740, "wait:223": 741, "wait:224": 742, "wait:225": 743, "wait:226": 744, "wait:227": 745, "wait:228": 746, "wait:229": 747, "wait:230": 748, "wait:231": 749, "wait:232": 750, "wait:233": 751, "wait:234": 752, "wait:235": 753, "wait:236": 754, "wait:237": 755, "wait:238": 756, "wait:239": 757, "wait:240": 758, "wait:241": 759, "wait:242": 760, "wait:243": 761, "wait:244": 762, "wait:245": 763, "wait:246": 764, "wait:247": 765, "wait:248": 766, "wait:249": 767, "wait:250": 768, "wait:251": 769, "wait:252": 770, "wait:253": 771, "wait:254": 772, "wait:255": 773, "wait:256": 774, "wait:257": 775, "wait:258": 776, "wait:259": 777, "wait:260": 778, "wait:261": 779, "wait:262": 780, "wait:263": 781, "wait:264": 782, "wait:265": 783, "wait:266": 784, "wait:267": 785, "wait:268": 786, "wait:269": 787, "wait:270": 788, "wait:271": 789, "wait:272": 790, "wait:273": 791, "wait:274": 792, "wait:275": 793, "wait:276": 794, "wait:277": 795, "wait:278": 796, "wait:279": 797, "wait:280": 798, "wait:281": 799, "wait:282": 800, "wait:283": 801, "wait:284": 802, "wait:285": 803, "wait:286": 804, "wait:287": 805, "wait:288": 806, "wait:289": 807, "wait:290": 808, "wait:291": 809, "wait:292": 810, "wait:293": 811, "wait:294": 812, "wait:295": 813, "wait:296": 814, "wait:297": 815, "wait:298": 816, "wait:299": 817, "wait:300": 818, "wait:301": 819, "wait:302": 820, "wait:303": 821, "wait:304": 822, "wait:305": 823, "wait:306": 824, "wait:307": 825, "wait:308": 826, "wait:309": 827, "wait:310": 828, "wait:311": 829, "wait:312": 830, "wait:313": 831, "wait:314": 832, "wait:315": 833, "wait:316": 834, "wait:317": 835, "wait:318": 836, "wait:319": 837, "wait:320": 838, "wait:321": 839, "wait:322": 840, "wait:323": 841, "wait:324": 842, "wait:325": 843, "wait:326": 844, "wait:327": 845, "wait:328": 846, "wait:329": 847, "wait:330": 848, "wait:331": 849, "wait:332": 850, "wait:333": 851, "wait:334": 852, "wait:335": 853, "wait:336": 854, "wait:337": 855, "wait:338": 856, "wait:339": 857, "wait:340": 858, "wait:341": 859, "wait:342": 860, "wait:343": 861, "wait:344": 862, "wait:345": 863, "wait:346": 864, "wait:347": 865, "wait:348": 866, "wait:349": 867, "wait:350": 868, "wait:351": 869, "wait:352": 870, "wait:353": 871, "wait:354": 872, "wait:355": 873, "wait:356": 874, "wait:357": 875, "wait:358": 876, "wait:359": 877, "wait:360": 878, "wait:361": 879, "wait:362": 880, "wait:363": 881, "wait:364": 882, "wait:365": 883, "wait:366": 884, "wait:367": 885, "wait:368": 886, "wait:369": 887, "wait:370": 888, "wait:371": 889, "wait:372": 890, "wait:373": 891, "wait:374": 892, "wait:375": 893, "wait:376": 894, "wait:377": 895, "wait:378": 896, "wait:379": 897, "wait:380": 898, "wait:381": 899, "wait:382": 900, "wait:383": 901, "wait:384": 902, "wait:385": 903, "wait:386": 904, "wait:387": 905, "wait:388": 906, "wait:389": 907, "wait:390": 908, "wait:391": 909, "wait:392": 910, "wait:393": 911, "wait:394": 912, "wait:395": 913, "wait:396": 914, "wait:397": 915, "wait:398": 916, "wait:399": 917, "wait:400": 918, "wait:401": 919, "wait:402": 920, "wait:403": 921, "wait:404": 922, "wait:405": 923, "wait:406": 924, "wait:407": 925, "wait:408": 926, "wait:409": 927, "wait:410": 928, "wait:411": 929, "wait:412": 930, "wait:413": 931, "wait:414": 932, "wait:415": 933, "wait:416": 934, "wait:417": 935, "wait:418": 936, "wait:419": 937, "wait:420": 938, "wait:421": 939, "wait:422": 940, "wait:423": 941, "wait:424": 942, "wait:425": 943, "wait:426": 944, "wait:427": 945, "wait:428": 946, "wait:429": 947, "wait:430": 948, "wait:431": 949, "wait:432": 950, "wait:433": 951, "wait:434": 952, "wait:435": 953, "wait:436": 954, "wait:437": 955, "wait:438": 956, "wait:439": 957, "wait:440": 958, "wait:441": 959, "wait:442": 960, "wait:443": 961, "wait:444": 962, "wait:445": 963, "wait:446": 964, "wait:447": 965, "wait:448": 966, "wait:449": 967, "wait:450": 968, "wait:451": 969, "wait:452": 970, "wait:453": 971, "wait:454": 972, "wait:455": 973, "wait:456": 974, "wait:457": 975, "wait:458": 976, "wait:459": 977, "wait:460": 978, "wait:461": 979, "wait:462": 980, "wait:463": 981, "wait:464": 982, "wait:465": 983, "wait:466": 984, "wait:467": 985, "wait:468": 986, "wait:469": 987, "wait:470": 988, "wait:471": 989, "wait:472": 990, "wait:473": 991, "wait:474": 992, "wait:475": 993, "wait:476": 994, "wait:477": 995, "wait:478": 996, "wait:479": 997, "wait:480": 998, "wait:481": 999, "wait:482": 1000, "wait:483": 1001, "wait:484": 1002, "wait:485": 1003, "wait:486": 1004, "wait:487": 1005, "wait:488": 1006, "wait:489": 1007, "wait:490": 1008, "wait:491": 1009, "wait:492": 1010, "wait:493": 1011, "wait:494": 1012, "wait:495": 1013, "wait:496": 1014, "wait:497": 1015, "wait:498": 1016, "wait:499": 1017, "wait:500": 1018, "wait:501": 1019, "wait:502": 1020, "wait:503": 1021, "wait:504": 1022, "wait:505": 1023, "wait:506": 1024, "wait:507": 1025, "wait:508": 1026, "wait:509": 1027, "wait:510": 1028, "wait:511": 1029, "wait:512": 1030, "wait:513": 1031, "wait:514": 1032, "wait:515": 1033, "wait:516": 1034, "wait:517": 1035, "wait:518": 1036, "wait:519": 1037, "wait:520": 1038, "wait:521": 1039, "wait:522": 1040, "wait:523": 1041, "wait:524": 1042, "wait:525": 1043, "wait:526": 1044, "wait:527": 1045, "wait:528": 1046, "wait:529": 1047, "wait:530": 1048, "wait:531": 1049, "wait:532": 1050, "wait:533": 1051, "wait:534": 1052, "wait:535": 1053, "wait:536": 1054, "wait:537": 1055, "wait:538": 1056, "wait:539": 1057, "wait:540": 1058, "wait:541": 1059, "wait:542": 1060, "wait:543": 1061, "wait:544": 1062, "wait:545": 1063, "wait:546": 1064, "wait:547": 1065, "wait:548": 1066, "wait:549": 1067, "wait:550": 1068, "wait:551": 1069, "wait:552": 1070, "wait:553": 1071, "wait:554": 1072, "wait:555": 1073, "wait:556": 1074, "wait:557": 1075, "wait:558": 1076, "wait:559": 1077, "wait:560": 1078, "wait:561": 1079, "wait:562": 1080, "wait:563": 1081, "wait:564": 1082, "wait:565": 1083, "wait:566": 1084, "wait:567": 1085, "wait:568": 1086, "wait:569": 1087, "wait:570": 1088, "wait:571": 1089, "wait:572": 1090, "wait:573": 1091, "wait:574": 1092, "wait:575": 1093, "wait:576": 1094, "wait:577": 1095, "wait:578": 1096, "wait:579": 1097, "wait:580": 1098, "wait:581": 1099, "wait:582": 1100, "wait:583": 1101, "wait:584": 1102, "wait:585": 1103, "wait:586": 1104, "wait:587": 1105, "wait:588": 1106, "wait:589": 1107, "wait:590": 1108, "wait:591": 1109, "wait:592": 1110, "wait:593": 1111, "wait:594": 1112, "wait:595": 1113, "wait:596": 1114, "wait:597": 1115, "wait:598": 1116, "wait:599": 1117, "wait:600": 1118, "wait:601": 1119, "wait:602": 1120, "wait:603": 1121, "wait:604": 1122, "wait:605": 1123, "wait:606": 1124, "wait:607": 1125, "wait:608": 1126, "wait:609": 1127, "wait:610": 1128, "wait:611": 1129, "wait:612": 1130, "wait:613": 1131, "wait:614": 1132, "wait:615": 1133, "wait:616": 1134, "wait:617": 1135, "wait:618": 1136, "wait:619": 1137, "wait:620": 1138, "wait:621": 1139, "wait:622": 1140, "wait:623": 1141, "wait:624": 1142, "wait:625": 1143, "wait:626": 1144, "wait:627": 1145, "wait:628": 1146, "wait:629": 1147, "wait:630": 1148, "wait:631": 1149, "wait:632": 1150, "wait:633": 1151, "wait:634": 1152, "wait:635": 1153, "wait:636": 1154, "wait:637": 1155, "wait:638": 1156, "wait:639": 1157, "wait:640": 1158, "wait:641": 1159, "wait:642": 1160, "wait:643": 1161, "wait:644": 1162, "wait:645": 1163, "wait:646": 1164, "wait:647": 1165, "wait:648": 1166, "wait:649": 1167, "wait:650": 1168, "wait:651": 1169, "wait:652": 1170, "wait:653": 1171, "wait:654": 1172, "wait:655": 1173, "wait:656": 1174, "wait:657": 1175, "wait:658": 1176, "wait:659": 1177, "wait:660": 1178, "wait:661": 1179, "wait:662": 1180, "wait:663": 1181, "wait:664": 1182, "wait:665": 1183, "wait:666": 1184, "wait:667": 1185, "wait:668": 1186, "wait:669": 1187, "wait:670": 1188, "wait:671": 1189, "wait:672": 1190, "wait:673": 1191, "wait:674": 1192, "wait:675": 1193, "wait:676": 1194, "wait:677": 1195, "wait:678": 1196, "wait:679": 1197, "wait:680": 1198, "wait:681": 1199, "wait:682": 1200, "wait:683": 1201, "wait:684": 1202, "wait:685": 1203, "wait:686": 1204, "wait:687": 1205, "wait:688": 1206, "wait:689": 1207, "wait:690": 1208, "wait:691": 1209, "wait:692": 1210, "wait:693": 1211, "wait:694": 1212, "wait:695": 1213, "wait:696": 1214, "wait:697": 1215, "wait:698": 1216, "wait:699": 1217, "wait:700": 1218, "wait:701": 1219, "wait:702": 1220, "wait:703": 1221, "wait:704": 1222, "wait:705": 1223, "wait:706": 1224, "wait:707": 1225, "wait:708": 1226, "wait:709": 1227, "wait:710": 1228, "wait:711": 1229, "wait:712": 1230, "wait:713": 1231, "wait:714": 1232, "wait:715": 1233, "wait:716": 1234, "wait:717": 1235, "wait:718": 1236, "wait:719": 1237, "wait:720": 1238, "wait:721": 1239, "wait:722": 1240, "wait:723": 1241, "wait:724": 1242, "wait:725": 1243, "wait:726": 1244, "wait:727": 1245, "wait:728": 1246, "wait:729": 1247, "wait:730": 1248, "wait:731": 1249, "wait:732": 1250, "wait:733": 1251, "wait:734": 1252, "wait:735": 1253, "wait:736": 1254, "wait:737": 1255, "wait:738": 1256, "wait:739": 1257, "wait:740": 1258, "wait:741": 1259, "wait:742": 1260, "wait:743": 1261, "wait:744": 1262, "wait:745": 1263, "wait:746": 1264, "wait:747": 1265, "wait:748": 1266, "wait:749": 1267, "wait:750": 1268, "wait:751": 1269, "wait:752": 1270, "wait:753": 1271, "wait:754": 1272, "wait:755": 1273, "wait:756": 1274, "wait:757": 1275, "wait:758": 1276, "wait:759": 1277, "wait:760": 1278, "wait:761": 1279, "wait:762": 1280, "wait:763": 1281, "wait:764": 1282, "wait:765": 1283, "wait:766": 1284, "wait:767": 1285, "wait:768": 1286, "wait:769": 1287, "wait:770": 1288, "wait:771": 1289, "wait:772": 1290, "wait:773": 1291, "wait:774": 1292, "wait:775": 1293, "wait:776": 1294, "wait:777": 1295, "wait:778": 1296, "wait:779": 1297, "wait:780": 1298, "wait:781": 1299, "wait:782": 1300, "wait:783": 1301, "wait:784": 1302, "wait:785": 1303, "wait:786": 1304, "wait:787": 1305, "wait:788": 1306, "wait:789": 1307, "wait:790": 1308, "wait:791": 1309, "wait:792": 1310, "wait:793": 1311, "wait:794": 1312, "wait:795": 1313, "wait:796": 1314, "wait:797": 1315, "wait:798": 1316, "wait:799": 1317, "wait:800": 1318, "wait:801": 1319, "wait:802": 1320, "wait:803": 1321, "wait:804": 1322, "wait:805": 1323, "wait:806": 1324, "wait:807": 1325, "wait:808": 1326, "wait:809": 1327, "wait:810": 1328, "wait:811": 1329, "wait:812": 1330, "wait:813": 1331, "wait:814": 1332, "wait:815": 1333, "wait:816": 1334, "wait:817": 1335, "wait:818": 1336, "wait:819": 1337, "wait:820": 1338, "wait:821": 1339, "wait:822": 1340, "wait:823": 1341, "wait:824": 1342, "wait:825": 1343, "wait:826": 1344, "wait:827": 1345, "wait:828": 1346, "wait:829": 1347, "wait:830": 1348, "wait:831": 1349, "wait:832": 1350, "wait:833": 1351, "wait:834": 1352, "wait:835": 1353, "wait:836": 1354, "wait:837": 1355, "wait:838": 1356, "wait:839": 1357, "wait:840": 1358, "wait:841": 1359, "wait:842": 1360, "wait:843": 1361, "wait:844": 1362, "wait:845": 1363, "wait:846": 1364, "wait:847": 1365, "wait:848": 1366, "wait:849": 1367, "wait:850": 1368, "wait:851": 1369, "wait:852": 1370, "wait:853": 1371, "wait:854": 1372, "wait:855": 1373, "wait:856": 1374, "wait:857": 1375, "wait:858": 1376, "wait:859": 1377, "wait:860": 1378, "wait:861": 1379, "wait:862": 1380, "wait:863": 1381, "wait:864": 1382, "wait:865": 1383, "wait:866": 1384, "wait:867": 1385, "wait:868": 1386, "wait:869": 1387, "wait:870": 1388, "wait:871": 1389, "wait:872": 1390, "wait:873": 1391, "wait:874": 1392, "wait:875": 1393, "wait:876": 1394, "wait:877": 1395, "wait:878": 1396, "wait:879": 1397, "wait:880": 1398, "wait:881": 1399, "wait:882": 1400, "wait:883": 1401, "wait:884": 1402, "wait:885": 1403, "wait:886": 1404, "wait:887": 1405, "wait:888": 1406, "wait:889": 1407, "wait:890": 1408, "wait:891": 1409, "wait:892": 1410, "wait:893": 1411, "wait:894": 1412, "wait:895": 1413, "wait:896": 1414, "wait:897": 1415, "wait:898": 1416, "wait:899": 1417, "wait:900": 1418, "wait:901": 1419, "wait:902": 1420, "wait:903": 1421, "wait:904": 1422, "wait:905": 1423, "wait:906": 1424, "wait:907": 1425, "wait:908": 1426, "wait:909": 1427, "wait:910": 1428, "wait:911": 1429, "wait:912": 1430, "wait:913": 1431, "wait:914": 1432, "wait:915": 1433, "wait:916": 1434, "wait:917": 1435, "wait:918": 1436, "wait:919": 1437, "wait:920": 1438, "wait:921": 1439, "wait:922": 1440, "wait:923": 1441, "wait:924": 1442, "wait:925": 1443, "wait:926": 1444, "wait:927": 1445, "wait:928": 1446, "wait:929": 1447, "wait:930": 1448, "wait:931": 1449, "wait:932": 1450, "wait:933": 1451, "wait:934": 1452, "wait:935": 1453, "wait:936": 1454, "wait:937": 1455, "wait:938": 1456, "wait:939": 1457, "wait:940": 1458, "wait:941": 1459, "wait:942": 1460, "wait:943": 1461, "wait:944": 1462, "wait:945": 1463, "wait:946": 1464, "wait:947": 1465, "wait:948": 1466, "wait:949": 1467, "wait:950": 1468, "wait:951": 1469, "wait:952": 1470, "wait:953": 1471, "wait:954": 1472, "wait:955": 1473, "wait:956": 1474, "wait:957": 1475, "wait:958": 1476, "wait:959": 1477, "wait:960": 1478, "wait:961": 1479, "wait:962": 1480, "wait:963": 1481, "wait:964": 1482, "wait:965": 1483, "wait:966": 1484, "wait:967": 1485, "wait:968": 1486, "wait:969": 1487, "wait:970": 1488, "wait:971": 1489, "wait:972": 1490, "wait:973": 1491, "wait:974": 1492, "wait:975": 1493, "wait:976": 1494, "wait:977": 1495, "wait:978": 1496, "wait:979": 1497, "wait:980": 1498, "wait:981": 1499, "wait:982": 1500, "wait:983": 1501, "wait:984": 1502, "wait:985": 1503, "wait:986": 1504, "wait:987": 1505, "wait:988": 1506, "wait:989": 1507, "wait:990": 1508, "wait:991": 1509, "wait:992": 1510, "wait:993": 1511, "wait:994": 1512, "wait:995": 1513, "wait:996": 1514, "wait:997": 1515, "wait:998": 1516, "wait:999": 1517, "wait:1000": 1518, "wait:1001": 1519, "wait:1002": 1520, "wait:1003": 1521, "wait:1004": 1522, "wait:1005": 1523, "wait:1006": 1524, "wait:1007": 1525, "wait:1008": 1526, "wait:1009": 1527, "wait:1010": 1528, "wait:1011": 1529, "wait:1012": 1530, "wait:1013": 1531, "wait:1014": 1532, "wait:1015": 1533, "wait:1016": 1534, "wait:1017": 1535, "wait:1018": 1536, "wait:1019": 1537, "wait:1020": 1538, "wait:1021": 1539, "wait:1022": 1540, "wait:1023": 1541, "wait:1024": 1542, "wait:1025": 1543, "wait:1026": 1544, "wait:1027": 1545, "wait:1028": 1546, "wait:1029": 1547, "wait:1030": 1548, "wait:1031": 1549, "wait:1032": 1550, "wait:1033": 1551, "wait:1034": 1552, "wait:1035": 1553, "wait:1036": 1554, "wait:1037": 1555, "wait:1038": 1556, "wait:1039": 1557, "wait:1040": 1558, "wait:1041": 1559, "wait:1042": 1560, "wait:1043": 1561, "wait:1044": 1562, "wait:1045": 1563, "wait:1046": 1564, "wait:1047": 1565, "wait:1048": 1566, "wait:1049": 1567, "wait:1050": 1568, "wait:1051": 1569, "wait:1052": 1570, "wait:1053": 1571, "wait:1054": 1572, "wait:1055": 1573, "wait:1056": 1574, "wait:1057": 1575, "wait:1058": 1576, "wait:1059": 1577, "wait:1060": 1578, "wait:1061": 1579, "wait:1062": 1580, "wait:1063": 1581, "wait:1064": 1582, "wait:1065": 1583, "wait:1066": 1584, "wait:1067": 1585, "wait:1068": 1586, "wait:1069": 1587, "wait:1070": 1588, "wait:1071": 1589, "wait:1072": 1590, "wait:1073": 1591, "wait:1074": 1592, "wait:1075": 1593, "wait:1076": 1594, "wait:1077": 1595, "wait:1078": 1596, "wait:1079": 1597, "wait:1080": 1598, "wait:1081": 1599, "wait:1082": 1600, "wait:1083": 1601, "wait:1084": 1602, "wait:1085": 1603, "wait:1086": 1604, "wait:1087": 1605, "wait:1088": 1606, "wait:1089": 1607, "wait:1090": 1608, "wait:1091": 1609, "wait:1092": 1610, "wait:1093": 1611, "wait:1094": 1612, "wait:1095": 1613, "wait:1096": 1614, "wait:1097": 1615, "wait:1098": 1616, "wait:1099": 1617, "wait:1100": 1618, "wait:1101": 1619, "wait:1102": 1620, "wait:1103": 1621, "wait:1104": 1622, "wait:1105": 1623, "wait:1106": 1624, "wait:1107": 1625, "wait:1108": 1626, "wait:1109": 1627, "wait:1110": 1628, "wait:1111": 1629, "wait:1112": 1630, "wait:1113": 1631, "wait:1114": 1632, "wait:1115": 1633, "wait:1116": 1634, "wait:1117": 1635, "wait:1118": 1636, "wait:1119": 1637, "wait:1120": 1638, "wait:1121": 1639, "wait:1122": 1640, "wait:1123": 1641, "wait:1124": 1642, "wait:1125": 1643, "wait:1126": 1644, "wait:1127": 1645, "wait:1128": 1646, "wait:1129": 1647, "wait:1130": 1648, "wait:1131": 1649, "wait:1132": 1650, "wait:1133": 1651, "wait:1134": 1652, "wait:1135": 1653, "wait:1136": 1654, "wait:1137": 1655, "wait:1138": 1656, "wait:1139": 1657, "wait:1140": 1658, "wait:1141": 1659, "wait:1142": 1660, "wait:1143": 1661, "wait:1144": 1662, "wait:1145": 1663, "wait:1146": 1664, "wait:1147": 1665, "wait:1148": 1666, "wait:1149": 1667, "wait:1150": 1668, "wait:1151": 1669, "wait:1152": 1670, "wait:1153": 1671, "wait:1154": 1672, "wait:1155": 1673, "wait:1156": 1674, "wait:1157": 1675, "wait:1158": 1676, "wait:1159": 1677, "wait:1160": 1678, "wait:1161": 1679, "wait:1162": 1680, "wait:1163": 1681, "wait:1164": 1682, "wait:1165": 1683, "wait:1166": 1684, "wait:1167": 1685, "wait:1168": 1686, "wait:1169": 1687, "wait:1170": 1688, "wait:1171": 1689, "wait:1172": 1690, "wait:1173": 1691, "wait:1174": 1692, "wait:1175": 1693, "wait:1176": 1694, "wait:1177": 1695, "wait:1178": 1696, "wait:1179": 1697, "wait:1180": 1698, "wait:1181": 1699, "wait:1182": 1700, "wait:1183": 1701, "wait:1184": 1702, "wait:1185": 1703, "wait:1186": 1704, "wait:1187": 1705, "wait:1188": 1706, "wait:1189": 1707, "wait:1190": 1708, "wait:1191": 1709, "wait:1192": 1710, "wait:1193": 1711, "wait:1194": 1712, "wait:1195": 1713, "wait:1196": 1714, "wait:1197": 1715, "wait:1198": 1716, "wait:1199": 1717, "wait:1200": 1718, "wait:1201": 1719, "wait:1202": 1720, "wait:1203": 1721, "wait:1204": 1722, "wait:1205": 1723, "wait:1206": 1724, "wait:1207": 1725, "wait:1208": 1726, "wait:1209": 1727, "wait:1210": 1728, "wait:1211": 1729, "wait:1212": 1730, "wait:1213": 1731, "wait:1214": 1732, "wait:1215": 1733, "wait:1216": 1734, "wait:1217": 1735, "wait:1218": 1736, "wait:1219": 1737, "wait:1220": 1738, "wait:1221": 1739, "wait:1222": 1740, "wait:1223": 1741, "wait:1224": 1742, "wait:1225": 1743, "wait:1226": 1744, "wait:1227": 1745, "wait:1228": 1746, "wait:1229": 1747, "wait:1230": 1748, "wait:1231": 1749, "wait:1232": 1750, "wait:1233": 1751, "wait:1234": 1752, "wait:1235": 1753, "wait:1236": 1754, "wait:1237": 1755, "wait:1238": 1756, "wait:1239": 1757, "wait:1240": 1758, "wait:1241": 1759, "wait:1242": 1760, "wait:1243": 1761, "wait:1244": 1762, "wait:1245": 1763, "wait:1246": 1764, "wait:1247": 1765, "wait:1248": 1766, "wait:1249": 1767, "wait:1250": 1768, "wait:1251": 1769, "wait:1252": 1770, "wait:1253": 1771, "wait:1254": 1772, "wait:1255": 1773, "wait:1256": 1774, "wait:1257": 1775, "wait:1258": 1776, "wait:1259": 1777, "wait:1260": 1778, "wait:1261": 1779, "wait:1262": 1780, "wait:1263": 1781, "wait:1264": 1782, "wait:1265": 1783, "wait:1266": 1784, "wait:1267": 1785, "wait:1268": 1786, "wait:1269": 1787, "wait:1270": 1788, "wait:1271": 1789, "wait:1272": 1790, "wait:1273": 1791, "wait:1274": 1792, "wait:1275": 1793, "wait:1276": 1794, "wait:1277": 1795, "wait:1278": 1796, "wait:1279": 1797, "wait:1280": 1798, "wait:1281": 1799, "wait:1282": 1800, "wait:1283": 1801, "wait:1284": 1802, "wait:1285": 1803, "wait:1286": 1804, "wait:1287": 1805, "wait:1288": 1806, "wait:1289": 1807, "wait:1290": 1808, "wait:1291": 1809, "wait:1292": 1810, "wait:1293": 1811, "wait:1294": 1812, "wait:1295": 1813, "wait:1296": 1814, "wait:1297": 1815, "wait:1298": 1816, "wait:1299": 1817, "wait:1300": 1818, "wait:1301": 1819, "wait:1302": 1820, "wait:1303": 1821, "wait:1304": 1822, "wait:1305": 1823, "wait:1306": 1824, "wait:1307": 1825, "wait:1308": 1826, "wait:1309": 1827, "wait:1310": 1828, "wait:1311": 1829, "wait:1312": 1830, "wait:1313": 1831, "wait:1314": 1832, "wait:1315": 1833, "wait:1316": 1834, "wait:1317": 1835, "wait:1318": 1836, "wait:1319": 1837, "wait:1320": 1838, "wait:1321": 1839, "wait:1322": 1840, "wait:1323": 1841, "wait:1324": 1842, "wait:1325": 1843, "wait:1326": 1844, "wait:1327": 1845, "wait:1328": 1846, "wait:1329": 1847, "wait:1330": 1848, "wait:1331": 1849, "wait:1332": 1850, "wait:1333": 1851, "wait:1334": 1852, "wait:1335": 1853, "wait:1336": 1854, "wait:1337": 1855, "wait:1338": 1856, "wait:1339": 1857, "wait:1340": 1858, "wait:1341": 1859, "wait:1342": 1860, "wait:1343": 1861, "wait:1344": 1862, "wait:1345": 1863, "wait:1346": 1864, "wait:1347": 1865, "wait:1348": 1866, "wait:1349": 1867, "wait:1350": 1868, "wait:1351": 1869, "wait:1352": 1870, "wait:1353": 1871, "wait:1354": 1872, "wait:1355": 1873, "wait:1356": 1874, "wait:1357": 1875, "wait:1358": 1876, "wait:1359": 1877, "wait:1360": 1878, "wait:1361": 1879, "wait:1362": 1880, "wait:1363": 1881, "wait:1364": 1882, "wait:1365": 1883, "wait:1366": 1884, "wait:1367": 1885, "wait:1368": 1886, "wait:1369": 1887, "wait:1370": 1888, "wait:1371": 1889, "wait:1372": 1890, "wait:1373": 1891, "wait:1374": 1892, "wait:1375": 1893, "wait:1376": 1894, "wait:1377": 1895, "wait:1378": 1896, "wait:1379": 1897, "wait:1380": 1898, "wait:1381": 1899, "wait:1382": 1900, "wait:1383": 1901, "wait:1384": 1902, "wait:1385": 1903, "wait:1386": 1904, "wait:1387": 1905, "wait:1388": 1906, "wait:1389": 1907, "wait:1390": 1908, "wait:1391": 1909, "wait:1392": 1910, "wait:1393": 1911, "wait:1394": 1912, "wait:1395": 1913, "wait:1396": 1914, "wait:1397": 1915, "wait:1398": 1916, "wait:1399": 1917, "wait:1400": 1918, "wait:1401": 1919, "wait:1402": 1920, "wait:1403": 1921, "wait:1404": 1922, "wait:1405": 1923, "wait:1406": 1924, "wait:1407": 1925, "wait:1408": 1926, "wait:1409": 1927, "wait:1410": 1928, "wait:1411": 1929, "wait:1412": 1930, "wait:1413": 1931, "wait:1414": 1932, "wait:1415": 1933, "wait:1416": 1934, "wait:1417": 1935, "wait:1418": 1936, "wait:1419": 1937, "wait:1420": 1938, "wait:1421": 1939, "wait:1422": 1940, "wait:1423": 1941, "wait:1424": 1942, "wait:1425": 1943, "wait:1426": 1944, "wait:1427": 1945, "wait:1428": 1946, "wait:1429": 1947, "wait:1430": 1948, "wait:1431": 1949, "wait:1432": 1950, "wait:1433": 1951, "wait:1434": 1952, "wait:1435": 1953, "wait:1436": 1954, "wait:1437": 1955, "wait:1438": 1956, "wait:1439": 1957, "wait:1440": 1958, "wait:1441": 1959, "wait:1442": 1960, "wait:1443": 1961, "wait:1444": 1962, "wait:1445": 1963, "wait:1446": 1964, "wait:1447": 1965, "wait:1448": 1966, "wait:1449": 1967, "wait:1450": 1968, "wait:1451": 1969, "wait:1452": 1970, "wait:1453": 1971, "wait:1454": 1972, "wait:1455": 1973, "wait:1456": 1974, "wait:1457": 1975, "wait:1458": 1976, "wait:1459": 1977, "wait:1460": 1978, "wait:1461": 1979, "wait:1462": 1980, "wait:1463": 1981, "wait:1464": 1982, "wait:1465": 1983, "wait:1466": 1984, "wait:1467": 1985, "wait:1468": 1986, "wait:1469": 1987, "wait:1470": 1988, "wait:1471": 1989, "wait:1472": 1990, "wait:1473": 1991, "wait:1474": 1992, "wait:1475": 1993, "wait:1476": 1994, "wait:1477": 1995, "wait:1478": 1996, "wait:1479": 1997, "wait:1480": 1998, "wait:1481": 1999, "wait:1482": 2000, "wait:1483": 2001, "wait:1484": 2002, "wait:1485": 2003, "wait:1486": 2004, "wait:1487": 2005, "wait:1488": 2006, "wait:1489": 2007, "wait:1490": 2008, "wait:1491": 2009, "wait:1492": 2010, "wait:1493": 2011, "wait:1494": 2012, "wait:1495": 2013, "wait:1496": 2014, "wait:1497": 2015, "wait:1498": 2016, "wait:1499": 2017, "wait:1500": 2018, "wait:1501": 2019, "wait:1502": 2020, "wait:1503": 2021, "wait:1504": 2022, "wait:1505": 2023, "wait:1506": 2024, "wait:1507": 2025, "wait:1508": 2026, "wait:1509": 2027, "wait:1510": 2028, "wait:1511": 2029, "wait:1512": 2030, "wait:1513": 2031, "wait:1514": 2032, "wait:1515": 2033, "wait:1516": 2034, "wait:1517": 2035, "wait:1518": 2036, "wait:1519": 2037, "wait:1520": 2038, "wait:1521": 2039, "wait:1522": 2040, "wait:1523": 2041, "wait:1524": 2042, "wait:1525": 2043, "wait:1526": 2044, "wait:1527": 2045, "wait:1528": 2046, "wait:1529": 2047, "wait:1530": 2048, "wait:1531": 2049, "wait:1532": 2050, "wait:1533": 2051, "wait:1534": 2052, "wait:1535": 2053, "wait:1536": 2054, "wait:1537": 2055, "wait:1538": 2056, "wait:1539": 2057, "wait:1540": 2058, "wait:1541": 2059, "wait:1542": 2060, "wait:1543": 2061, "wait:1544": 2062, "wait:1545": 2063, "wait:1546": 2064, "wait:1547": 2065, "wait:1548": 2066, "wait:1549": 2067, "wait:1550": 2068, "wait:1551": 2069, "wait:1552": 2070, "wait:1553": 2071, "wait:1554": 2072, "wait:1555": 2073, "wait:1556": 2074, "wait:1557": 2075, "wait:1558": 2076, "wait:1559": 2077, "wait:1560": 2078, "wait:1561": 2079, "wait:1562": 2080, "wait:1563": 2081, "wait:1564": 2082, "wait:1565": 2083, "wait:1566": 2084, "wait:1567": 2085, "wait:1568": 2086, "wait:1569": 2087, "wait:1570": 2088, "wait:1571": 2089, "wait:1572": 2090, "wait:1573": 2091, "wait:1574": 2092, "wait:1575": 2093, "wait:1576": 2094, "wait:1577": 2095, "wait:1578": 2096, "wait:1579": 2097, "wait:1580": 2098, "wait:1581": 2099, "wait:1582": 2100, "wait:1583": 2101, "wait:1584": 2102, "wait:1585": 2103, "wait:1586": 2104, "wait:1587": 2105, "wait:1588": 2106, "wait:1589": 2107, "wait:1590": 2108, "wait:1591": 2109, "wait:1592": 2110, "wait:1593": 2111, "wait:1594": 2112, "wait:1595": 2113, "wait:1596": 2114, "wait:1597": 2115, "wait:1598": 2116, "wait:1599": 2117, "wait:1600": 2118, "wait:1601": 2119, "wait:1602": 2120, "wait:1603": 2121, "wait:1604": 2122, "wait:1605": 2123, "wait:1606": 2124, "wait:1607": 2125, "wait:1608": 2126, "wait:1609": 2127, "wait:1610": 2128, "wait:1611": 2129, "wait:1612": 2130, "wait:1613": 2131, "wait:1614": 2132, "wait:1615": 2133, "wait:1616": 2134, "wait:1617": 2135, "wait:1618": 2136, "wait:1619": 2137, "wait:1620": 2138, "wait:1621": 2139, "wait:1622": 2140, "wait:1623": 2141, "wait:1624": 2142, "wait:1625": 2143, "wait:1626": 2144, "wait:1627": 2145, "wait:1628": 2146, "wait:1629": 2147, "wait:1630": 2148, "wait:1631": 2149, "wait:1632": 2150, "wait:1633": 2151, "wait:1634": 2152, "wait:1635": 2153, "wait:1636": 2154, "wait:1637": 2155, "wait:1638": 2156, "wait:1639": 2157, "wait:1640": 2158, "wait:1641": 2159, "wait:1642": 2160, "wait:1643": 2161, "wait:1644": 2162, "wait:1645": 2163, "wait:1646": 2164, "wait:1647": 2165, "wait:1648": 2166, "wait:1649": 2167, "wait:1650": 2168, "wait:1651": 2169, "wait:1652": 2170, "wait:1653": 2171, "wait:1654": 2172, "wait:1655": 2173, "wait:1656": 2174, "wait:1657": 2175, "wait:1658": 2176, "wait:1659": 2177, "wait:1660": 2178, "wait:1661": 2179, "wait:1662": 2180, "wait:1663": 2181, "wait:1664": 2182, "wait:1665": 2183, "wait:1666": 2184, "wait:1667": 2185, "wait:1668": 2186, "wait:1669": 2187, "wait:1670": 2188, "wait:1671": 2189, "wait:1672": 2190, "wait:1673": 2191, "wait:1674": 2192, "wait:1675": 2193, "wait:1676": 2194, "wait:1677": 2195, "wait:1678": 2196, "wait:1679": 2197, "wait:1680": 2198, "wait:1681": 2199, "wait:1682": 2200, "wait:1683": 2201, "wait:1684": 2202, "wait:1685": 2203, "wait:1686": 2204, "wait:1687": 2205, "wait:1688": 2206, "wait:1689": 2207, "wait:1690": 2208, "wait:1691": 2209, "wait:1692": 2210, "wait:1693": 2211, "wait:1694": 2212, "wait:1695": 2213, "wait:1696": 2214, "wait:1697": 2215, "wait:1698": 2216, "wait:1699": 2217, "wait:1700": 2218, "wait:1701": 2219, "wait:1702": 2220, "wait:1703": 2221, "wait:1704": 2222, "wait:1705": 2223, "wait:1706": 2224, "wait:1707": 2225, "wait:1708": 2226, "wait:1709": 2227, "wait:1710": 2228, "wait:1711": 2229, "wait:1712": 2230, "wait:1713": 2231, "wait:1714": 2232, "wait:1715": 2233, "wait:1716": 2234, "wait:1717": 2235, "wait:1718": 2236, "wait:1719": 2237, "wait:1720": 2238, "wait:1721": 2239, "wait:1722": 2240, "wait:1723": 2241, "wait:1724": 2242, "wait:1725": 2243, "wait:1726": 2244, "wait:1727": 2245, "wait:1728": 2246, "wait:1729": 2247, "wait:1730": 2248, "wait:1731": 2249, "wait:1732": 2250, "wait:1733": 2251, "wait:1734": 2252, "wait:1735": 2253, "wait:1736": 2254, "wait:1737": 2255, "wait:1738": 2256, "wait:1739": 2257, "wait:1740": 2258, "wait:1741": 2259, "wait:1742": 2260, "wait:1743": 2261, "wait:1744": 2262, "wait:1745": 2263, "wait:1746": 2264, "wait:1747": 2265, "wait:1748": 2266, "wait:1749": 2267, "wait:1750": 2268, "wait:1751": 2269, "wait:1752": 2270, "wait:1753": 2271, "wait:1754": 2272, "wait:1755": 2273, "wait:1756": 2274, "wait:1757": 2275, "wait:1758": 2276, "wait:1759": 2277, "wait:1760": 2278, "wait:1761": 2279, "wait:1762": 2280, "wait:1763": 2281, "wait:1764": 2282, "wait:1765": 2283, "wait:1766": 2284, "wait:1767": 2285, "wait:1768": 2286, "wait:1769": 2287, "wait:1770": 2288, "wait:1771": 2289, "wait:1772": 2290, "wait:1773": 2291, "wait:1774": 2292, "wait:1775": 2293, "wait:1776": 2294, "wait:1777": 2295, "wait:1778": 2296, "wait:1779": 2297, "wait:1780": 2298, "wait:1781": 2299, "wait:1782": 2300, "wait:1783": 2301, "wait:1784": 2302, "wait:1785": 2303, "wait:1786": 2304, "wait:1787": 2305, "wait:1788": 2306, "wait:1789": 2307, "wait:1790": 2308, "wait:1791": 2309, "wait:1792": 2310, "wait:1793": 2311, "wait:1794": 2312, "wait:1795": 2313, "wait:1796": 2314, "wait:1797": 2315, "wait:1798": 2316, "wait:1799": 2317, "wait:1800": 2318, "wait:1801": 2319, "wait:1802": 2320, "wait:1803": 2321, "wait:1804": 2322, "wait:1805": 2323, "wait:1806": 2324, "wait:1807": 2325, "wait:1808": 2326, "wait:1809": 2327, "wait:1810": 2328, "wait:1811": 2329, "wait:1812": 2330, "wait:1813": 2331, "wait:1814": 2332, "wait:1815": 2333, "wait:1816": 2334, "wait:1817": 2335, "wait:1818": 2336, "wait:1819": 2337, "wait:1820": 2338, "wait:1821": 2339, "wait:1822": 2340, "wait:1823": 2341, "wait:1824": 2342, "wait:1825": 2343, "wait:1826": 2344, "wait:1827": 2345, "wait:1828": 2346, "wait:1829": 2347, "wait:1830": 2348, "wait:1831": 2349, "wait:1832": 2350, "wait:1833": 2351, "wait:1834": 2352, "wait:1835": 2353, "wait:1836": 2354, "wait:1837": 2355, "wait:1838": 2356, "wait:1839": 2357, "wait:1840": 2358, "wait:1841": 2359, "wait:1842": 2360, "wait:1843": 2361, "wait:1844": 2362, "wait:1845": 2363, "wait:1846": 2364, "wait:1847": 2365, "wait:1848": 2366, "wait:1849": 2367, "wait:1850": 2368, "wait:1851": 2369, "wait:1852": 2370, "wait:1853": 2371, "wait:1854": 2372, "wait:1855": 2373, "wait:1856": 2374, "wait:1857": 2375, "wait:1858": 2376, "wait:1859": 2377, "wait:1860": 2378, "wait:1861": 2379, "wait:1862": 2380, "wait:1863": 2381, "wait:1864": 2382, "wait:1865": 2383, "wait:1866": 2384, "wait:1867": 2385, "wait:1868": 2386, "wait:1869": 2387, "wait:1870": 2388, "wait:1871": 2389, "wait:1872": 2390, "wait:1873": 2391, "wait:1874": 2392, "wait:1875": 2393, "wait:1876": 2394, "wait:1877": 2395, "wait:1878": 2396, "wait:1879": 2397, "wait:1880": 2398, "wait:1881": 2399, "wait:1882": 2400, "wait:1883": 2401, "wait:1884": 2402, "wait:1885": 2403, "wait:1886": 2404, "wait:1887": 2405, "wait:1888": 2406, "wait:1889": 2407, "wait:1890": 2408, "wait:1891": 2409, "wait:1892": 2410, "wait:1893": 2411, "wait:1894": 2412, "wait:1895": 2413, "wait:1896": 2414, "wait:1897": 2415, "wait:1898": 2416, "wait:1899": 2417, "wait:1900": 2418, "wait:1901": 2419, "wait:1902": 2420, "wait:1903": 2421, "wait:1904": 2422, "wait:1905": 2423, "wait:1906": 2424, "wait:1907": 2425, "wait:1908": 2426, "wait:1909": 2427, "wait:1910": 2428, "wait:1911": 2429, "wait:1912": 2430, "wait:1913": 2431, "wait:1914": 2432, "wait:1915": 2433, "wait:1916": 2434, "wait:1917": 2435, "wait:1918": 2436, "wait:1919": 2437, "wait:1920": 2438, "wait:1921": 2439, "wait:1922": 2440, "wait:1923": 2441, "wait:1924": 2442, "wait:1925": 2443, "wait:1926": 2444, "wait:1927": 2445, "wait:1928": 2446, "wait:1929": 2447, "wait:1930": 2448, "wait:1931": 2449, "wait:1932": 2450, "wait:1933": 2451, "wait:1934": 2452, "wait:1935": 2453, "wait:1936": 2454, "wait:1937": 2455, "wait:1938": 2456, "wait:1939": 2457, "wait:1940": 2458, "wait:1941": 2459, "wait:1942": 2460, "wait:1943": 2461, "wait:1944": 2462, "wait:1945": 2463, "wait:1946": 2464, "wait:1947": 2465, "wait:1948": 2466, "wait:1949": 2467, "wait:1950": 2468, "wait:1951": 2469, "wait:1952": 2470, "wait:1953": 2471, "wait:1954": 2472, "wait:1955": 2473, "wait:1956": 2474, "wait:1957": 2475, "wait:1958": 2476, "wait:1959": 2477, "wait:1960": 2478, "wait:1961": 2479, "wait:1962": 2480, "wait:1963": 2481, "wait:1964": 2482, "wait:1965": 2483, "wait:1966": 2484, "wait:1967": 2485, "wait:1968": 2486, "wait:1969": 2487, "wait:1970": 2488, "wait:1971": 2489, "wait:1972": 2490, "wait:1973": 2491, "wait:1974": 2492, "wait:1975": 2493, "wait:1976": 2494, "wait:1977": 2495, "wait:1978": 2496, "wait:1979": 2497, "wait:1980": 2498, "wait:1981": 2499, "wait:1982": 2500, "wait:1983": 2501, "wait:1984": 2502, "wait:1985": 2503, "wait:1986": 2504, "wait:1987": 2505, "wait:1988": 2506, "wait:1989": 2507, "wait:1990": 2508, "wait:1991": 2509, "wait:1992": 2510, "wait:1993": 2511, "wait:1994": 2512, "wait:1995": 2513, "wait:1996": 2514, "wait:1997": 2515, "wait:1998": 2516, "wait:1999": 2517, "wait:2000": 2518, "wait:2001": 2519, "wait:2002": 2520, "wait:2003": 2521, "wait:2004": 2522, "wait:2005": 2523, "wait:2006": 2524, "wait:2007": 2525, "wait:2008": 2526, "wait:2009": 2527, "wait:2010": 2528, "wait:2011": 2529, "wait:2012": 2530, "wait:2013": 2531, "wait:2014": 2532, "wait:2015": 2533, "wait:2016": 2534, "wait:2017": 2535, "wait:2018": 2536, "wait:2019": 2537, "wait:2020": 2538, "wait:2021": 2539, "wait:2022": 2540, "wait:2023": 2541, "wait:2024": 2542, "wait:2025": 2543, "wait:2026": 2544, "wait:2027": 2545, "wait:2028": 2546, "wait:2029": 2547, "wait:2030": 2548, "wait:2031": 2549, "wait:2032": 2550, "wait:2033": 2551, "wait:2034": 2552, "wait:2035": 2553, "wait:2036": 2554, "wait:2037": 2555, "wait:2038": 2556, "wait:2039": 2557, "wait:2040": 2558, "wait:2041": 2559, "wait:2042": 2560, "wait:2043": 2561, "wait:2044": 2562, "wait:2045": 2563, "wait:2046": 2564, "wait:2047": 2565, "wait:2048": 2566, "wait:2049": 2567, "wait:2050": 2568, "wait:2051": 2569, "wait:2052": 2570, "wait:2053": 2571, "wait:2054": 2572, "wait:2055": 2573, "wait:2056": 2574, "wait:2057": 2575, "wait:2058": 2576, "wait:2059": 2577, "wait:2060": 2578, "wait:2061": 2579, "wait:2062": 2580, "wait:2063": 2581, "wait:2064": 2582, "wait:2065": 2583, "wait:2066": 2584, "wait:2067": 2585, "wait:2068": 2586, "wait:2069": 2587, "wait:2070": 2588, "wait:2071": 2589, "wait:2072": 2590, "wait:2073": 2591, "wait:2074": 2592, "wait:2075": 2593, "wait:2076": 2594, "wait:2077": 2595, "wait:2078": 2596, "wait:2079": 2597, "wait:2080": 2598, "wait:2081": 2599, "wait:2082": 2600, "wait:2083": 2601, "wait:2084": 2602, "wait:2085": 2603, "wait:2086": 2604, "wait:2087": 2605, "wait:2088": 2606, "wait:2089": 2607, "wait:2090": 2608, "wait:2091": 2609, "wait:2092": 2610, "wait:2093": 2611, "wait:2094": 2612, "wait:2095": 2613, "wait:2096": 2614, "wait:2097": 2615, "wait:2098": 2616, "wait:2099": 2617, "wait:2100": 2618, "wait:2101": 2619, "wait:2102": 2620, "wait:2103": 2621, "wait:2104": 2622, "wait:2105": 2623, "wait:2106": 2624, "wait:2107": 2625, "wait:2108": 2626, "wait:2109": 2627, "wait:2110": 2628, "wait:2111": 2629, "wait:2112": 2630, "wait:2113": 2631, "wait:2114": 2632, "wait:2115": 2633, "wait:2116": 2634, "wait:2117": 2635, "wait:2118": 2636, "wait:2119": 2637, "wait:2120": 2638, "wait:2121": 2639, "wait:2122": 2640, "wait:2123": 2641, "wait:2124": 2642, "wait:2125": 2643, "wait:2126": 2644, "wait:2127": 2645, "wait:2128": 2646, "wait:2129": 2647, "wait:2130": 2648, "wait:2131": 2649, "wait:2132": 2650, "wait:2133": 2651, "wait:2134": 2652, "wait:2135": 2653, "wait:2136": 2654, "wait:2137": 2655, "wait:2138": 2656, "wait:2139": 2657, "wait:2140": 2658, "wait:2141": 2659, "wait:2142": 2660, "wait:2143": 2661, "wait:2144": 2662, "wait:2145": 2663, "wait:2146": 2664, "wait:2147": 2665, "wait:2148": 2666, "wait:2149": 2667, "wait:2150": 2668, "wait:2151": 2669, "wait:2152": 2670, "wait:2153": 2671, "wait:2154": 2672, "wait:2155": 2673, "wait:2156": 2674, "wait:2157": 2675, "wait:2158": 2676, "wait:2159": 2677, "wait:2160": 2678, "wait:2161": 2679, "wait:2162": 2680, "wait:2163": 2681, "wait:2164": 2682, "wait:2165": 2683, "wait:2166": 2684, "wait:2167": 2685, "wait:2168": 2686, "wait:2169": 2687, "wait:2170": 2688, "wait:2171": 2689, "wait:2172": 2690, "wait:2173": 2691, "wait:2174": 2692, "wait:2175": 2693, "wait:2176": 2694, "wait:2177": 2695, "wait:2178": 2696, "wait:2179": 2697, "wait:2180": 2698, "wait:2181": 2699, "wait:2182": 2700, "wait:2183": 2701, "wait:2184": 2702, "wait:2185": 2703, "wait:2186": 2704, "wait:2187": 2705, "wait:2188": 2706, "wait:2189": 2707, "wait:2190": 2708, "wait:2191": 2709, "wait:2192": 2710, "wait:2193": 2711, "wait:2194": 2712, "wait:2195": 2713, "wait:2196": 2714, "wait:2197": 2715, "wait:2198": 2716, "wait:2199": 2717, "wait:2200": 2718, "wait:2201": 2719, "wait:2202": 2720, "wait:2203": 2721, "wait:2204": 2722, "wait:2205": 2723, "wait:2206": 2724, "wait:2207": 2725, "wait:2208": 2726, "wait:2209": 2727, "wait:2210": 2728, "wait:2211": 2729, "wait:2212": 2730, "wait:2213": 2731, "wait:2214": 2732, "wait:2215": 2733, "wait:2216": 2734, "wait:2217": 2735, "wait:2218": 2736, "wait:2219": 2737, "wait:2220": 2738, "wait:2221": 2739, "wait:2222": 2740, "wait:2223": 2741, "wait:2224": 2742, "wait:2225": 2743, "wait:2226": 2744, "wait:2227": 2745, "wait:2228": 2746, "wait:2229": 2747, "wait:2230": 2748, "wait:2231": 2749, "wait:2232": 2750, "wait:2233": 2751, "wait:2234": 2752, "wait:2235": 2753, "wait:2236": 2754, "wait:2237": 2755, "wait:2238": 2756, "wait:2239": 2757, "wait:2240": 2758, "wait:2241": 2759, "wait:2242": 2760, "wait:2243": 2761, "wait:2244": 2762, "wait:2245": 2763, "wait:2246": 2764, "wait:2247": 2765, "wait:2248": 2766, "wait:2249": 2767, "wait:2250": 2768, "wait:2251": 2769, "wait:2252": 2770, "wait:2253": 2771, "wait:2254": 2772, "wait:2255": 2773, "wait:2256": 2774, "wait:2257": 2775, "wait:2258": 2776, "wait:2259": 2777, "wait:2260": 2778, "wait:2261": 2779, "wait:2262": 2780, "wait:2263": 2781, "wait:2264": 2782, "wait:2265": 2783, "wait:2266": 2784, "wait:2267": 2785, "wait:2268": 2786, "wait:2269": 2787, "wait:2270": 2788, "wait:2271": 2789, "wait:2272": 2790, "wait:2273": 2791, "wait:2274": 2792, "wait:2275": 2793, "wait:2276": 2794, "wait:2277": 2795, "wait:2278": 2796, "wait:2279": 2797, "wait:2280": 2798, "wait:2281": 2799, "wait:2282": 2800, "wait:2283": 2801, "wait:2284": 2802, "wait:2285": 2803, "wait:2286": 2804, "wait:2287": 2805, "wait:2288": 2806, "wait:2289": 2807, "wait:2290": 2808, "wait:2291": 2809, "wait:2292": 2810, "wait:2293": 2811, "wait:2294": 2812, "wait:2295": 2813, "wait:2296": 2814, "wait:2297": 2815, "wait:2298": 2816, "wait:2299": 2817, "wait:2300": 2818, "wait:2301": 2819, "wait:2302": 2820, "wait:2303": 2821, "wait:2304": 2822, "wait:2305": 2823, "wait:2306": 2824, "wait:2307": 2825, "wait:2308": 2826, "wait:2309": 2827, "wait:2310": 2828, "wait:2311": 2829, "wait:2312": 2830, "wait:2313": 2831, "wait:2314": 2832, "wait:2315": 2833, "wait:2316": 2834, "wait:2317": 2835, "wait:2318": 2836, "wait:2319": 2837, "wait:2320": 2838, "wait:2321": 2839, "wait:2322": 2840, "wait:2323": 2841, "wait:2324": 2842, "wait:2325": 2843, "wait:2326": 2844, "wait:2327": 2845, "wait:2328": 2846, "wait:2329": 2847, "wait:2330": 2848, "wait:2331": 2849, "wait:2332": 2850, "wait:2333": 2851, "wait:2334": 2852, "wait:2335": 2853, "wait:2336": 2854, "wait:2337": 2855, "wait:2338": 2856, "wait:2339": 2857, "wait:2340": 2858, "wait:2341": 2859, "wait:2342": 2860, "wait:2343": 2861, "wait:2344": 2862, "wait:2345": 2863, "wait:2346": 2864, "wait:2347": 2865, "wait:2348": 2866, "wait:2349": 2867, "wait:2350": 2868, "wait:2351": 2869, "wait:2352": 2870, "wait:2353": 2871, "wait:2354": 2872, "wait:2355": 2873, "wait:2356": 2874, "wait:2357": 2875, "wait:2358": 2876, "wait:2359": 2877, "wait:2360": 2878, "wait:2361": 2879, "wait:2362": 2880, "wait:2363": 2881, "wait:2364": 2882, "wait:2365": 2883, "wait:2366": 2884, "wait:2367": 2885, "wait:2368": 2886, "wait:2369": 2887, "wait:2370": 2888, "wait:2371": 2889, "wait:2372": 2890, "wait:2373": 2891, "wait:2374": 2892, "wait:2375": 2893, "wait:2376": 2894, "wait:2377": 2895, "wait:2378": 2896, "wait:2379": 2897, "wait:2380": 2898, "wait:2381": 2899, "wait:2382": 2900, "wait:2383": 2901, "wait:2384": 2902, "wait:2385": 2903, "wait:2386": 2904, "wait:2387": 2905, "wait:2388": 2906, "wait:2389": 2907, "wait:2390": 2908, "wait:2391": 2909, "wait:2392": 2910, "wait:2393": 2911, "wait:2394": 2912, "wait:2395": 2913, "wait:2396": 2914, "wait:2397": 2915, "wait:2398": 2916, "wait:2399": 2917, "wait:2400": 2918, "wait:2401": 2919, "wait:2402": 2920, "wait:2403": 2921, "wait:2404": 2922, "wait:2405": 2923, "wait:2406": 2924, "wait:2407": 2925, "wait:2408": 2926, "wait:2409": 2927, "wait:2410": 2928, "wait:2411": 2929, "wait:2412": 2930, "wait:2413": 2931, "wait:2414": 2932, "wait:2415": 2933, "wait:2416": 2934, "wait:2417": 2935, "wait:2418": 2936, "wait:2419": 2937, "wait:2420": 2938, "wait:2421": 2939, "wait:2422": 2940, "wait:2423": 2941, "wait:2424": 2942, "wait:2425": 2943, "wait:2426": 2944, "wait:2427": 2945, "wait:2428": 2946, "wait:2429": 2947, "wait:2430": 2948, "wait:2431": 2949, "wait:2432": 2950, "wait:2433": 2951, "wait:2434": 2952, "wait:2435": 2953, "wait:2436": 2954, "wait:2437": 2955, "wait:2438": 2956, "wait:2439": 2957, "wait:2440": 2958, "wait:2441": 2959, "wait:2442": 2960, "wait:2443": 2961, "wait:2444": 2962, "wait:2445": 2963, "wait:2446": 2964, "wait:2447": 2965, "wait:2448": 2966, "wait:2449": 2967, "wait:2450": 2968, "wait:2451": 2969, "wait:2452": 2970, "wait:2453": 2971, "wait:2454": 2972, "wait:2455": 2973, "wait:2456": 2974, "wait:2457": 2975, "wait:2458": 2976, "wait:2459": 2977, "wait:2460": 2978, "wait:2461": 2979, "wait:2462": 2980, "wait:2463": 2981, "wait:2464": 2982, "wait:2465": 2983, "wait:2466": 2984, "wait:2467": 2985, "wait:2468": 2986, "wait:2469": 2987, "wait:2470": 2988, "wait:2471": 2989, "wait:2472": 2990, "wait:2473": 2991, "wait:2474": 2992, "wait:2475": 2993, "wait:2476": 2994, "wait:2477": 2995, "wait:2478": 2996, "wait:2479": 2997, "wait:2480": 2998, "wait:2481": 2999, "wait:2482": 3000, "wait:2483": 3001, "wait:2484": 3002, "wait:2485": 3003, "wait:2486": 3004, "wait:2487": 3005, "wait:2488": 3006, "wait:2489": 3007, "wait:2490": 3008, "wait:2491": 3009, "wait:2492": 3010, "wait:2493": 3011, "wait:2494": 3012, "wait:2495": 3013, "wait:2496": 3014, "wait:2497": 3015, "wait:2498": 3016, "wait:2499": 3017, "wait:2500": 3018, "wait:2501": 3019, "wait:2502": 3020, "wait:2503": 3021, "wait:2504": 3022, "wait:2505": 3023, "wait:2506": 3024, "wait:2507": 3025, "wait:2508": 3026, "wait:2509": 3027, "wait:2510": 3028, "wait:2511": 3029, "wait:2512": 3030, "wait:2513": 3031, "wait:2514": 3032, "wait:2515": 3033, "wait:2516": 3034, "wait:2517": 3035, "wait:2518": 3036, "wait:2519": 3037, "wait:2520": 3038, "wait:2521": 3039, "wait:2522": 3040, "wait:2523": 3041, "wait:2524": 3042, "wait:2525": 3043, "wait:2526": 3044, "wait:2527": 3045, "wait:2528": 3046, "wait:2529": 3047, "wait:2530": 3048, "wait:2531": 3049, "wait:2532": 3050, "wait:2533": 3051, "wait:2534": 3052, "wait:2535": 3053, "wait:2536": 3054, "wait:2537": 3055, "wait:2538": 3056, "wait:2539": 3057, "wait:2540": 3058, "wait:2541": 3059, "wait:2542": 3060, "wait:2543": 3061, "wait:2544": 3062, "wait:2545": 3063, "wait:2546": 3064, "wait:2547": 3065, "wait:2548": 3066, "wait:2549": 3067, "wait:2550": 3068, "wait:2551": 3069, "wait:2552": 3070, "wait:2553": 3071, "wait:2554": 3072, "wait:2555": 3073, "wait:2556": 3074, "wait:2557": 3075, "wait:2558": 3076, "wait:2559": 3077, "wait:2560": 3078, "wait:2561": 3079, "wait:2562": 3080, "wait:2563": 3081, "wait:2564": 3082, "wait:2565": 3083, "wait:2566": 3084, "wait:2567": 3085, "wait:2568": 3086, "wait:2569": 3087, "wait:2570": 3088, "wait:2571": 3089, "wait:2572": 3090, "wait:2573": 3091, "wait:2574": 3092, "wait:2575": 3093, "wait:2576": 3094, "wait:2577": 3095, "wait:2578": 3096, "wait:2579": 3097, "wait:2580": 3098, "wait:2581": 3099, "wait:2582": 3100, "wait:2583": 3101, "wait:2584": 3102, "wait:2585": 3103, "wait:2586": 3104, "wait:2587": 3105, "wait:2588": 3106, "wait:2589": 3107, "wait:2590": 3108, "wait:2591": 3109, "wait:2592": 3110, "wait:2593": 3111, "wait:2594": 3112, "wait:2595": 3113, "wait:2596": 3114, "wait:2597": 3115, "wait:2598": 3116, "wait:2599": 3117, "wait:2600": 3118, "wait:2601": 3119, "wait:2602": 3120, "wait:2603": 3121, "wait:2604": 3122, "wait:2605": 3123, "wait:2606": 3124, "wait:2607": 3125, "wait:2608": 3126, "wait:2609": 3127, "wait:2610": 3128, "wait:2611": 3129, "wait:2612": 3130, "wait:2613": 3131, "wait:2614": 3132, "wait:2615": 3133, "wait:2616": 3134, "wait:2617": 3135, "wait:2618": 3136, "wait:2619": 3137, "wait:2620": 3138, "wait:2621": 3139, "wait:2622": 3140, "wait:2623": 3141, "wait:2624": 3142, "wait:2625": 3143, "wait:2626": 3144, "wait:2627": 3145, "wait:2628": 3146, "wait:2629": 3147, "wait:2630": 3148, "wait:2631": 3149, "wait:2632": 3150, "wait:2633": 3151, "wait:2634": 3152, "wait:2635": 3153, "wait:2636": 3154, "wait:2637": 3155, "wait:2638": 3156, "wait:2639": 3157, "wait:2640": 3158, "wait:2641": 3159, "wait:2642": 3160, "wait:2643": 3161, "wait:2644": 3162, "wait:2645": 3163, "wait:2646": 3164, "wait:2647": 3165, "wait:2648": 3166, "wait:2649": 3167, "wait:2650": 3168, "wait:2651": 3169, "wait:2652": 3170, "wait:2653": 3171, "wait:2654": 3172, "wait:2655": 3173, "wait:2656": 3174, "wait:2657": 3175, "wait:2658": 3176, "wait:2659": 3177, "wait:2660": 3178, "wait:2661": 3179, "wait:2662": 3180, "wait:2663": 3181, "wait:2664": 3182, "wait:2665": 3183, "wait:2666": 3184, "wait:2667": 3185, "wait:2668": 3186, "wait:2669": 3187, "wait:2670": 3188, "wait:2671": 3189, "wait:2672": 3190, "wait:2673": 3191, "wait:2674": 3192, "wait:2675": 3193, "wait:2676": 3194, "wait:2677": 3195, "wait:2678": 3196, "wait:2679": 3197, "wait:2680": 3198, "wait:2681": 3199, "wait:2682": 3200, "wait:2683": 3201, "wait:2684": 3202, "wait:2685": 3203, "wait:2686": 3204, "wait:2687": 3205, "wait:2688": 3206, "wait:2689": 3207, "wait:2690": 3208, "wait:2691": 3209, "wait:2692": 3210, "wait:2693": 3211, "wait:2694": 3212, "wait:2695": 3213, "wait:2696": 3214, "wait:2697": 3215, "wait:2698": 3216, "wait:2699": 3217, "wait:2700": 3218, "wait:2701": 3219, "wait:2702": 3220, "wait:2703": 3221, "wait:2704": 3222, "wait:2705": 3223, "wait:2706": 3224, "wait:2707": 3225, "wait:2708": 3226, "wait:2709": 3227, "wait:2710": 3228, "wait:2711": 3229, "wait:2712": 3230, "wait:2713": 3231, "wait:2714": 3232, "wait:2715": 3233, "wait:2716": 3234, "wait:2717": 3235, "wait:2718": 3236, "wait:2719": 3237, "wait:2720": 3238, "wait:2721": 3239, "wait:2722": 3240, "wait:2723": 3241, "wait:2724": 3242, "wait:2725": 3243, "wait:2726": 3244, "wait:2727": 3245, "wait:2728": 3246, "wait:2729": 3247, "wait:2730": 3248, "wait:2731": 3249, "wait:2732": 3250, "wait:2733": 3251, "wait:2734": 3252, "wait:2735": 3253, "wait:2736": 3254, "wait:2737": 3255, "wait:2738": 3256, "wait:2739": 3257, "wait:2740": 3258, "wait:2741": 3259, "wait:2742": 3260, "wait:2743": 3261, "wait:2744": 3262, "wait:2745": 3263, "wait:2746": 3264, "wait:2747": 3265, "wait:2748": 3266, "wait:2749": 3267, "wait:2750": 3268, "wait:2751": 3269, "wait:2752": 3270, "wait:2753": 3271, "wait:2754": 3272, "wait:2755": 3273, "wait:2756": 3274, "wait:2757": 3275, "wait:2758": 3276, "wait:2759": 3277, "wait:2760": 3278, "wait:2761": 3279, "wait:2762": 3280, "wait:2763": 3281, "wait:2764": 3282, "wait:2765": 3283, "wait:2766": 3284, "wait:2767": 3285, "wait:2768": 3286, "wait:2769": 3287, "wait:2770": 3288, "wait:2771": 3289, "wait:2772": 3290, "wait:2773": 3291, "wait:2774": 3292, "wait:2775": 3293, "wait:2776": 3294, "wait:2777": 3295, "wait:2778": 3296, "wait:2779": 3297, "wait:2780": 3298, "wait:2781": 3299, "wait:2782": 3300, "wait:2783": 3301, "wait:2784": 3302, "wait:2785": 3303, "wait:2786": 3304, "wait:2787": 3305, "wait:2788": 3306, "wait:2789": 3307, "wait:2790": 3308, "wait:2791": 3309, "wait:2792": 3310, "wait:2793": 3311, "wait:2794": 3312, "wait:2795": 3313, "wait:2796": 3314, "wait:2797": 3315, "wait:2798": 3316, "wait:2799": 3317, "wait:2800": 3318, "wait:2801": 3319, "wait:2802": 3320, "wait:2803": 3321, "wait:2804": 3322, "wait:2805": 3323, "wait:2806": 3324, "wait:2807": 3325, "wait:2808": 3326, "wait:2809": 3327, "wait:2810": 3328, "wait:2811": 3329, "wait:2812": 3330, "wait:2813": 3331, "wait:2814": 3332, "wait:2815": 3333, "wait:2816": 3334, "wait:2817": 3335, "wait:2818": 3336, "wait:2819": 3337, "wait:2820": 3338, "wait:2821": 3339, "wait:2822": 3340, "wait:2823": 3341, "wait:2824": 3342, "wait:2825": 3343, "wait:2826": 3344, "wait:2827": 3345, "wait:2828": 3346, "wait:2829": 3347, "wait:2830": 3348, "wait:2831": 3349, "wait:2832": 3350, "wait:2833": 3351, "wait:2834": 3352, "wait:2835": 3353, "wait:2836": 3354, "wait:2837": 3355, "wait:2838": 3356, "wait:2839": 3357, "wait:2840": 3358, "wait:2841": 3359, "wait:2842": 3360, "wait:2843": 3361, "wait:2844": 3362, "wait:2845": 3363, "wait:2846": 3364, "wait:2847": 3365, "wait:2848": 3366, "wait:2849": 3367, "wait:2850": 3368, "wait:2851": 3369, "wait:2852": 3370, "wait:2853": 3371, "wait:2854": 3372, "wait:2855": 3373, "wait:2856": 3374, "wait:2857": 3375, "wait:2858": 3376, "wait:2859": 3377, "wait:2860": 3378, "wait:2861": 3379, "wait:2862": 3380, "wait:2863": 3381, "wait:2864": 3382, "wait:2865": 3383, "wait:2866": 3384, "wait:2867": 3385, "wait:2868": 3386, "wait:2869": 3387, "wait:2870": 3388, "wait:2871": 3389, "wait:2872": 3390, "wait:2873": 3391, "wait:2874": 3392, "wait:2875": 3393, "wait:2876": 3394, "wait:2877": 3395, "wait:2878": 3396, "wait:2879": 3397, "wait:2880": 3398, "wait:2881": 3399, "wait:2882": 3400, "wait:2883": 3401, "wait:2884": 3402, "wait:2885": 3403, "wait:2886": 3404, "wait:2887": 3405, "wait:2888": 3406, "wait:2889": 3407, "wait:2890": 3408, "wait:2891": 3409, "wait:2892": 3410, "wait:2893": 3411, "wait:2894": 3412, "wait:2895": 3413, "wait:2896": 3414, "wait:2897": 3415, "wait:2898": 3416, "wait:2899": 3417, "wait:2900": 3418, "wait:2901": 3419, "wait:2902": 3420, "wait:2903": 3421, "wait:2904": 3422, "wait:2905": 3423, "wait:2906": 3424, "wait:2907": 3425, "wait:2908": 3426, "wait:2909": 3427, "wait:2910": 3428, "wait:2911": 3429, "wait:2912": 3430, "wait:2913": 3431, "wait:2914": 3432, "wait:2915": 3433, "wait:2916": 3434, "wait:2917": 3435, "wait:2918": 3436, "wait:2919": 3437, "wait:2920": 3438, "wait:2921": 3439, "wait:2922": 3440, "wait:2923": 3441, "wait:2924": 3442, "wait:2925": 3443, "wait:2926": 3444, "wait:2927": 3445, "wait:2928": 3446, "wait:2929": 3447, "wait:2930": 3448, "wait:2931": 3449, "wait:2932": 3450, "wait:2933": 3451, "wait:2934": 3452, "wait:2935": 3453, "wait:2936": 3454, "wait:2937": 3455, "wait:2938": 3456, "wait:2939": 3457, "wait:2940": 3458, "wait:2941": 3459, "wait:2942": 3460, "wait:2943": 3461, "wait:2944": 3462, "wait:2945": 3463, "wait:2946": 3464, "wait:2947": 3465, "wait:2948": 3466, "wait:2949": 3467, "wait:2950": 3468, "wait:2951": 3469, "wait:2952": 3470, "wait:2953": 3471, "wait:2954": 3472, "wait:2955": 3473, "wait:2956": 3474, "wait:2957": 3475, "wait:2958": 3476, "wait:2959": 3477, "wait:2960": 3478, "wait:2961": 3479, "wait:2962": 3480, "wait:2963": 3481, "wait:2964": 3482, "wait:2965": 3483, "wait:2966": 3484, "wait:2967": 3485, "wait:2968": 3486, "wait:2969": 3487, "wait:2970": 3488, "wait:2971": 3489, "wait:2972": 3490, "wait:2973": 3491, "wait:2974": 3492, "wait:2975": 3493, "wait:2976": 3494, "wait:2977": 3495, "wait:2978": 3496, "wait:2979": 3497, "wait:2980": 3498, "wait:2981": 3499, "wait:2982": 3500, "wait:2983": 3501, "wait:2984": 3502, "wait:2985": 3503, "wait:2986": 3504, "wait:2987": 3505, "wait:2988": 3506, "wait:2989": 3507, "wait:2990": 3508, "wait:2991": 3509, "wait:2992": 3510, "wait:2993": 3511, "wait:2994": 3512, "wait:2995": 3513, "wait:2996": 3514, "wait:2997": 3515, "wait:2998": 3516, "wait:2999": 3517, "wait:3000": 3518, "wait:3001": 3519, "wait:3002": 3520, "wait:3003": 3521, "wait:3004": 3522, "wait:3005": 3523, "wait:3006": 3524, "wait:3007": 3525, "wait:3008": 3526, "wait:3009": 3527, "wait:3010": 3528, "wait:3011": 3529, "wait:3012": 3530, "wait:3013": 3531, "wait:3014": 3532, "wait:3015": 3533, "wait:3016": 3534, "wait:3017": 3535, "wait:3018": 3536, "wait:3019": 3537, "wait:3020": 3538, "wait:3021": 3539, "wait:3022": 3540, "wait:3023": 3541, "wait:3024": 3542, "wait:3025": 3543, "wait:3026": 3544, "wait:3027": 3545, "wait:3028": 3546, "wait:3029": 3547, "wait:3030": 3548, "wait:3031": 3549, "wait:3032": 3550, "wait:3033": 3551, "wait:3034": 3552, "wait:3035": 3553, "wait:3036": 3554, "wait:3037": 3555, "wait:3038": 3556, "wait:3039": 3557, "wait:3040": 3558, "wait:3041": 3559, "wait:3042": 3560, "wait:3043": 3561, "wait:3044": 3562, "wait:3045": 3563, "wait:3046": 3564, "wait:3047": 3565, "wait:3048": 3566, "wait:3049": 3567, "wait:3050": 3568, "wait:3051": 3569, "wait:3052": 3570, "wait:3053": 3571, "wait:3054": 3572, "wait:3055": 3573, "wait:3056": 3574, "wait:3057": 3575, "wait:3058": 3576, "wait:3059": 3577, "wait:3060": 3578, "wait:3061": 3579, "wait:3062": 3580, "wait:3063": 3581, "wait:3064": 3582, "wait:3065": 3583, "wait:3066": 3584, "wait:3067": 3585, "wait:3068": 3586, "wait:3069": 3587, "wait:3070": 3588, "wait:3071": 3589, "wait:3072": 3590, "wait:3073": 3591, "wait:3074": 3592, "wait:3075": 3593, "wait:3076": 3594, "wait:3077": 3595, "wait:3078": 3596, "wait:3079": 3597, "wait:3080": 3598, "wait:3081": 3599, "wait:3082": 3600, "wait:3083": 3601, "wait:3084": 3602, "wait:3085": 3603, "wait:3086": 3604, "wait:3087": 3605, "wait:3088": 3606, "wait:3089": 3607, "wait:3090": 3608, "wait:3091": 3609, "wait:3092": 3610, "wait:3093": 3611, "wait:3094": 3612, "wait:3095": 3613, "wait:3096": 3614, "wait:3097": 3615, "wait:3098": 3616, "wait:3099": 3617, "wait:3100": 3618, "wait:3101": 3619, "wait:3102": 3620, "wait:3103": 3621, "wait:3104": 3622, "wait:3105": 3623, "wait:3106": 3624, "wait:3107": 3625, "wait:3108": 3626, "wait:3109": 3627, "wait:3110": 3628, "wait:3111": 3629, "wait:3112": 3630, "wait:3113": 3631, "wait:3114": 3632, "wait:3115": 3633, "wait:3116": 3634, "wait:3117": 3635, "wait:3118": 3636, "wait:3119": 3637, "wait:3120": 3638, "wait:3121": 3639, "wait:3122": 3640, "wait:3123": 3641, "wait:3124": 3642, "wait:3125": 3643, "wait:3126": 3644, "wait:3127": 3645, "wait:3128": 3646, "wait:3129": 3647, "wait:3130": 3648, "wait:3131": 3649, "wait:3132": 3650, "wait:3133": 3651, "wait:3134": 3652, "wait:3135": 3653, "wait:3136": 3654, "wait:3137": 3655, "wait:3138": 3656, "wait:3139": 3657, "wait:3140": 3658, "wait:3141": 3659, "wait:3142": 3660, "wait:3143": 3661, "wait:3144": 3662, "wait:3145": 3663, "wait:3146": 3664, "wait:3147": 3665, "wait:3148": 3666, "wait:3149": 3667, "wait:3150": 3668, "wait:3151": 3669, "wait:3152": 3670, "wait:3153": 3671, "wait:3154": 3672, "wait:3155": 3673, "wait:3156": 3674, "wait:3157": 3675, "wait:3158": 3676, "wait:3159": 3677, "wait:3160": 3678, "wait:3161": 3679, "wait:3162": 3680, "wait:3163": 3681, "wait:3164": 3682, "wait:3165": 3683, "wait:3166": 3684, "wait:3167": 3685, "wait:3168": 3686, "wait:3169": 3687, "wait:3170": 3688, "wait:3171": 3689, "wait:3172": 3690, "wait:3173": 3691, "wait:3174": 3692, "wait:3175": 3693, "wait:3176": 3694, "wait:3177": 3695, "wait:3178": 3696, "wait:3179": 3697, "wait:3180": 3698, "wait:3181": 3699, "wait:3182": 3700, "wait:3183": 3701, "wait:3184": 3702, "wait:3185": 3703, "wait:3186": 3704, "wait:3187": 3705, "wait:3188": 3706, "wait:3189": 3707, "wait:3190": 3708, "wait:3191": 3709, "wait:3192": 3710, "wait:3193": 3711, "wait:3194": 3712, "wait:3195": 3713, "wait:3196": 3714, "wait:3197": 3715, "wait:3198": 3716, "wait:3199": 3717, "wait:3200": 3718, "wait:3201": 3719, "wait:3202": 3720, "wait:3203": 3721, "wait:3204": 3722, "wait:3205": 3723, "wait:3206": 3724, "wait:3207": 3725, "wait:3208": 3726, "wait:3209": 3727, "wait:3210": 3728, "wait:3211": 3729, "wait:3212": 3730, "wait:3213": 3731, "wait:3214": 3732, "wait:3215": 3733, "wait:3216": 3734, "wait:3217": 3735, "wait:3218": 3736, "wait:3219": 3737, "wait:3220": 3738, "wait:3221": 3739, "wait:3222": 3740, "wait:3223": 3741, "wait:3224": 3742, "wait:3225": 3743, "wait:3226": 3744, "wait:3227": 3745, "wait:3228": 3746, "wait:3229": 3747, "wait:3230": 3748, "wait:3231": 3749, "wait:3232": 3750, "wait:3233": 3751, "wait:3234": 3752, "wait:3235": 3753, "wait:3236": 3754, "wait:3237": 3755, "wait:3238": 3756, "wait:3239": 3757, "wait:3240": 3758, "wait:3241": 3759, "wait:3242": 3760, "wait:3243": 3761, "wait:3244": 3762, "wait:3245": 3763, "wait:3246": 3764, "wait:3247": 3765, "wait:3248": 3766, "wait:3249": 3767, "wait:3250": 3768, "wait:3251": 3769, "wait:3252": 3770, "wait:3253": 3771, "wait:3254": 3772, "wait:3255": 3773, "wait:3256": 3774, "wait:3257": 3775, "wait:3258": 3776, "wait:3259": 3777, "wait:3260": 3778, "wait:3261": 3779, "wait:3262": 3780, "wait:3263": 3781, "wait:3264": 3782, "wait:3265": 3783, "wait:3266": 3784, "wait:3267": 3785, "wait:3268": 3786, "wait:3269": 3787, "wait:3270": 3788, "wait:3271": 3789, "wait:3272": 3790, "wait:3273": 3791, "wait:3274": 3792, "wait:3275": 3793, "wait:3276": 3794, "wait:3277": 3795, "wait:3278": 3796, "wait:3279": 3797, "wait:3280": 3798, "wait:3281": 3799, "wait:3282": 3800, "wait:3283": 3801, "wait:3284": 3802, "wait:3285": 3803, "wait:3286": 3804, "wait:3287": 3805, "wait:3288": 3806, "wait:3289": 3807, "wait:3290": 3808, "wait:3291": 3809, "wait:3292": 3810, "wait:3293": 3811, "wait:3294": 3812, "wait:3295": 3813, "wait:3296": 3814, "wait:3297": 3815, "wait:3298": 3816, "wait:3299": 3817, "wait:3300": 3818, "wait:3301": 3819, "wait:3302": 3820, "wait:3303": 3821, "wait:3304": 3822, "wait:3305": 3823, "wait:3306": 3824, "wait:3307": 3825, "wait:3308": 3826, "wait:3309": 3827, "wait:3310": 3828, "wait:3311": 3829, "wait:3312": 3830, "wait:3313": 3831, "wait:3314": 3832, "wait:3315": 3833, "wait:3316": 3834, "wait:3317": 3835, "wait:3318": 3836, "wait:3319": 3837, "wait:3320": 3838, "wait:3321": 3839, "wait:3322": 3840, "wait:3323": 3841, "wait:3324": 3842, "wait:3325": 3843, "wait:3326": 3844, "wait:3327": 3845, "wait:3328": 3846, "wait:3329": 3847, "wait:3330": 3848, "wait:3331": 3849, "wait:3332": 3850, "wait:3333": 3851, "wait:3334": 3852, "wait:3335": 3853, "wait:3336": 3854, "wait:3337": 3855, "wait:3338": 3856, "wait:3339": 3857, "wait:3340": 3858, "wait:3341": 3859, "wait:3342": 3860, "wait:3343": 3861, "wait:3344": 3862, "wait:3345": 3863, "wait:3346": 3864, "wait:3347": 3865, "wait:3348": 3866, "wait:3349": 3867, "wait:3350": 3868, "wait:3351": 3869, "wait:3352": 3870, "wait:3353": 3871, "wait:3354": 3872, "wait:3355": 3873, "wait:3356": 3874, "wait:3357": 3875, "wait:3358": 3876, "wait:3359": 3877, "wait:3360": 3878, "wait:3361": 3879, "wait:3362": 3880, "wait:3363": 3881, "wait:3364": 3882, "wait:3365": 3883, "wait:3366": 3884, "wait:3367": 3885, "wait:3368": 3886, "wait:3369": 3887, "wait:3370": 3888, "wait:3371": 3889, "wait:3372": 3890, "wait:3373": 3891, "wait:3374": 3892, "wait:3375": 3893, "wait:3376": 3894, "wait:3377": 3895, "wait:3378": 3896, "wait:3379": 3897, "wait:3380": 3898, "wait:3381": 3899, "wait:3382": 3900, "wait:3383": 3901, "wait:3384": 3902, "wait:3385": 3903, "wait:3386": 3904, "wait:3387": 3905, "wait:3388": 3906, "wait:3389": 3907, "wait:3390": 3908, "wait:3391": 3909, "wait:3392": 3910, "wait:3393": 3911, "wait:3394": 3912, "wait:3395": 3913, "wait:3396": 3914, "wait:3397": 3915, "wait:3398": 3916, "wait:3399": 3917, "wait:3400": 3918, "wait:3401": 3919, "wait:3402": 3920, "wait:3403": 3921, "wait:3404": 3922, "wait:3405": 3923, "wait:3406": 3924, "wait:3407": 3925, "wait:3408": 3926, "wait:3409": 3927, "wait:3410": 3928, "wait:3411": 3929, "wait:3412": 3930, "wait:3413": 3931, "wait:3414": 3932, "wait:3415": 3933, "wait:3416": 3934, "wait:3417": 3935, "wait:3418": 3936, "wait:3419": 3937, "wait:3420": 3938, "wait:3421": 3939, "wait:3422": 3940, "wait:3423": 3941, "wait:3424": 3942, "wait:3425": 3943, "wait:3426": 3944, "wait:3427": 3945, "wait:3428": 3946, "wait:3429": 3947, "wait:3430": 3948, "wait:3431": 3949, "wait:3432": 3950, "wait:3433": 3951, "wait:3434": 3952, "wait:3435": 3953, "wait:3436": 3954, "wait:3437": 3955, "wait:3438": 3956, "wait:3439": 3957, "wait:3440": 3958, "wait:3441": 3959, "wait:3442": 3960, "wait:3443": 3961, "wait:3444": 3962, "wait:3445": 3963, "wait:3446": 3964, "wait:3447": 3965, "wait:3448": 3966, "wait:3449": 3967, "wait:3450": 3968, "wait:3451": 3969, "wait:3452": 3970, "wait:3453": 3971, "wait:3454": 3972, "wait:3455": 3973, "wait:3456": 3974, "wait:3457": 3975, "wait:3458": 3976, "wait:3459": 3977, "wait:3460": 3978, "wait:3461": 3979, "wait:3462": 3980, "wait:3463": 3981, "wait:3464": 3982, "wait:3465": 3983, "wait:3466": 3984, "wait:3467": 3985, "wait:3468": 3986, "wait:3469": 3987, "wait:3470": 3988, "wait:3471": 3989, "wait:3472": 3990, "wait:3473": 3991, "wait:3474": 3992, "wait:3475": 3993, "wait:3476": 3994, "wait:3477": 3995, "wait:3478": 3996, "wait:3479": 3997, "wait:3480": 3998, "wait:3481": 3999, "wait:3482": 4000, "wait:3483": 4001, "wait:3484": 4002, "wait:3485": 4003, "wait:3486": 4004, "wait:3487": 4005, "wait:3488": 4006, "wait:3489": 4007, "wait:3490": 4008, "wait:3491": 4009, "wait:3492": 4010, "wait:3493": 4011, "wait:3494": 4012, "wait:3495": 4013, "wait:3496": 4014, "wait:3497": 4015, "wait:3498": 4016, "wait:3499": 4017, "wait:3500": 4018, "wait:3501": 4019, "wait:3502": 4020, "wait:3503": 4021, "wait:3504": 4022, "wait:3505": 4023, "wait:3506": 4024, "wait:3507": 4025, "wait:3508": 4026, "wait:3509": 4027, "wait:3510": 4028, "wait:3511": 4029, "wait:3512": 4030, "wait:3513": 4031, "wait:3514": 4032, "wait:3515": 4033, "wait:3516": 4034, "wait:3517": 4035, "wait:3518": 4036, "wait:3519": 4037, "wait:3520": 4038, "wait:3521": 4039, "wait:3522": 4040, "wait:3523": 4041, "wait:3524": 4042, "wait:3525": 4043, "wait:3526": 4044, "wait:3527": 4045, "wait:3528": 4046, "wait:3529": 4047, "wait:3530": 4048, "wait:3531": 4049, "wait:3532": 4050, "wait:3533": 4051, "wait:3534": 4052, "wait:3535": 4053, "wait:3536": 4054, "wait:3537": 4055, "wait:3538": 4056, "wait:3539": 4057, "wait:3540": 4058, "wait:3541": 4059, "wait:3542": 4060, "wait:3543": 4061, "wait:3544": 4062, "wait:3545": 4063, "wait:3546": 4064, "wait:3547": 4065, "wait:3548": 4066, "wait:3549": 4067, "wait:3550": 4068, "wait:3551": 4069, "wait:3552": 4070, "wait:3553": 4071, "wait:3554": 4072, "wait:3555": 4073, "wait:3556": 4074, "wait:3557": 4075, "wait:3558": 4076, "wait:3559": 4077, "wait:3560": 4078, "wait:3561": 4079, "wait:3562": 4080, "wait:3563": 4081, "wait:3564": 4082, "wait:3565": 4083, "wait:3566": 4084, "wait:3567": 4085, "wait:3568": 4086, "wait:3569": 4087, "wait:3570": 4088, "wait:3571": 4089, "wait:3572": 4090, "wait:3573": 4091, "wait:3574": 4092, "wait:3575": 4093, "wait:3576": 4094, "wait:3577": 4095, "wait:3578": 4096, "wait:3579": 4097, "wait:3580": 4098, "wait:3581": 4099, "wait:3582": 4100, "wait:3583": 4101, "wait:3584": 4102, "wait:3585": 4103, "wait:3586": 4104, "wait:3587": 4105, "wait:3588": 4106, "wait:3589": 4107, "wait:3590": 4108, "wait:3591": 4109, "wait:3592": 4110, "wait:3593": 4111, "wait:3594": 4112, "wait:3595": 4113, "wait:3596": 4114, "wait:3597": 4115, "wait:3598": 4116, "wait:3599": 4117, "wait:3600": 4118, "wait:3601": 4119, "wait:3602": 4120, "wait:3603": 4121, "wait:3604": 4122, "wait:3605": 4123, "wait:3606": 4124, "wait:3607": 4125, "wait:3608": 4126, "wait:3609": 4127, "wait:3610": 4128, "wait:3611": 4129, "wait:3612": 4130, "wait:3613": 4131, "wait:3614": 4132, "wait:3615": 4133, "wait:3616": 4134, "wait:3617": 4135, "wait:3618": 4136, "wait:3619": 4137, "wait:3620": 4138, "wait:3621": 4139, "wait:3622": 4140, "wait:3623": 4141, "wait:3624": 4142, "wait:3625": 4143, "wait:3626": 4144, "wait:3627": 4145, "wait:3628": 4146, "wait:3629": 4147, "wait:3630": 4148, "wait:3631": 4149, "wait:3632": 4150, "wait:3633": 4151, "wait:3634": 4152, "wait:3635": 4153, "wait:3636": 4154, "wait:3637": 4155, "wait:3638": 4156, "wait:3639": 4157, "wait:3640": 4158, "wait:3641": 4159, "wait:3642": 4160, "wait:3643": 4161, "wait:3644": 4162, "wait:3645": 4163, "wait:3646": 4164, "wait:3647": 4165, "wait:3648": 4166, "wait:3649": 4167, "wait:3650": 4168, "wait:3651": 4169, "wait:3652": 4170, "wait:3653": 4171, "wait:3654": 4172, "wait:3655": 4173, "wait:3656": 4174, "wait:3657": 4175, "wait:3658": 4176, "wait:3659": 4177, "wait:3660": 4178, "wait:3661": 4179, "wait:3662": 4180, "wait:3663": 4181, "wait:3664": 4182, "wait:3665": 4183, "wait:3666": 4184, "wait:3667": 4185, "wait:3668": 4186, "wait:3669": 4187, "wait:3670": 4188, "wait:3671": 4189, "wait:3672": 4190, "wait:3673": 4191, "wait:3674": 4192, "wait:3675": 4193, "wait:3676": 4194, "wait:3677": 4195, "wait:3678": 4196, "wait:3679": 4197, "wait:3680": 4198, "wait:3681": 4199, "wait:3682": 4200, "wait:3683": 4201, "wait:3684": 4202, "wait:3685": 4203, "wait:3686": 4204, "wait:3687": 4205, "wait:3688": 4206, "wait:3689": 4207, "wait:3690": 4208, "wait:3691": 4209, "wait:3692": 4210, "wait:3693": 4211, "wait:3694": 4212, "wait:3695": 4213, "wait:3696": 4214, "wait:3697": 4215, "wait:3698": 4216, "wait:3699": 4217, "wait:3700": 4218, "wait:3701": 4219, "wait:3702": 4220, "wait:3703": 4221, "wait:3704": 4222, "wait:3705": 4223, "wait:3706": 4224, "wait:3707": 4225, "wait:3708": 4226, "wait:3709": 4227, "wait:3710": 4228, "wait:3711": 4229, "wait:3712": 4230, "wait:3713": 4231, "wait:3714": 4232, "wait:3715": 4233, "wait:3716": 4234, "wait:3717": 4235, "wait:3718": 4236, "wait:3719": 4237, "wait:3720": 4238, "wait:3721": 4239, "wait:3722": 4240, "wait:3723": 4241, "wait:3724": 4242, "wait:3725": 4243, "wait:3726": 4244, "wait:3727": 4245, "wait:3728": 4246, "wait:3729": 4247, "wait:3730": 4248, "wait:3731": 4249, "wait:3732": 4250, "wait:3733": 4251, "wait:3734": 4252, "wait:3735": 4253, "wait:3736": 4254, "wait:3737": 4255, "wait:3738": 4256, "wait:3739": 4257, "wait:3740": 4258, "wait:3741": 4259, "wait:3742": 4260, "wait:3743": 4261, "wait:3744": 4262, "wait:3745": 4263, "wait:3746": 4264, "wait:3747": 4265, "wait:3748": 4266, "wait:3749": 4267, "wait:3750": 4268, "wait:3751": 4269, "wait:3752": 4270, "wait:3753": 4271, "wait:3754": 4272, "wait:3755": 4273, "wait:3756": 4274, "wait:3757": 4275, "wait:3758": 4276, "wait:3759": 4277, "wait:3760": 4278, "wait:3761": 4279, "wait:3762": 4280, "wait:3763": 4281, "wait:3764": 4282, "wait:3765": 4283, "wait:3766": 4284, "wait:3767": 4285, "wait:3768": 4286, "wait:3769": 4287, "wait:3770": 4288, "wait:3771": 4289, "wait:3772": 4290, "wait:3773": 4291, "wait:3774": 4292, "wait:3775": 4293, "wait:3776": 4294, "wait:3777": 4295, "wait:3778": 4296, "wait:3779": 4297, "wait:3780": 4298, "wait:3781": 4299, "wait:3782": 4300, "wait:3783": 4301, "wait:3784": 4302, "wait:3785": 4303, "wait:3786": 4304, "wait:3787": 4305, "wait:3788": 4306, "wait:3789": 4307, "wait:3790": 4308, "wait:3791": 4309, "wait:3792": 4310, "wait:3793": 4311, "wait:3794": 4312, "wait:3795": 4313, "wait:3796": 4314, "wait:3797": 4315, "wait:3798": 4316, "wait:3799": 4317, "wait:3800": 4318, "wait:3801": 4319, "wait:3802": 4320, "wait:3803": 4321, "wait:3804": 4322, "wait:3805": 4323, "wait:3806": 4324, "wait:3807": 4325, "wait:3808": 4326, "wait:3809": 4327, "wait:3810": 4328, "wait:3811": 4329, "wait:3812": 4330, "wait:3813": 4331, "wait:3814": 4332, "wait:3815": 4333, "wait:3816": 4334, "wait:3817": 4335, "wait:3818": 4336, "wait:3819": 4337, "wait:3820": 4338, "wait:3821": 4339, "wait:3822": 4340, "wait:3823": 4341, "wait:3824": 4342, "wait:3825": 4343, "wait:3826": 4344, "wait:3827": 4345, "wait:3828": 4346, "wait:3829": 4347, "wait:3830": 4348, "wait:3831": 4349, "wait:3832": 4350, "wait:3833": 4351, "wait:3834": 4352, "wait:3835": 4353, "wait:3836": 4354, "wait:3837": 4355, "wait:3838": 4356, "wait:3839": 4357, "wait:3840": 4358, "wait:3841": 4359, "wait:3842": 4360, "wait:3843": 4361, "wait:3844": 4362, "wait:3845": 4363, "wait:3846": 4364, "wait:3847": 4365, "wait:3848": 4366, "wait:3849": 4367, "wait:3850": 4368, "wait:3851": 4369, "wait:3852": 4370, "wait:3853": 4371, "wait:3854": 4372, "wait:3855": 4373, "wait:3856": 4374, "wait:3857": 4375, "wait:3858": 4376, "wait:3859": 4377, "wait:3860": 4378, "wait:3861": 4379, "wait:3862": 4380, "wait:3863": 4381, "wait:3864": 4382, "wait:3865": 4383, "wait:3866": 4384, "wait:3867": 4385, "wait:3868": 4386, "wait:3869": 4387, "wait:3870": 4388, "wait:3871": 4389, "wait:3872": 4390, "wait:3873": 4391, "wait:3874": 4392, "wait:3875": 4393, "wait:3876": 4394, "wait:3877": 4395, "wait:3878": 4396, "wait:3879": 4397, "wait:3880": 4398, "wait:3881": 4399, "wait:3882": 4400, "wait:3883": 4401, "wait:3884": 4402, "wait:3885": 4403, "wait:3886": 4404, "wait:3887": 4405, "wait:3888": 4406, "wait:3889": 4407, "wait:3890": 4408, "wait:3891": 4409, "wait:3892": 4410, "wait:3893": 4411, "wait:3894": 4412, "wait:3895": 4413, "wait:3896": 4414, "wait:3897": 4415, "wait:3898": 4416, "wait:3899": 4417, "wait:3900": 4418, "wait:3901": 4419, "wait:3902": 4420, "wait:3903": 4421, "wait:3904": 4422, "wait:3905": 4423, "wait:3906": 4424, "wait:3907": 4425, "wait:3908": 4426, "wait:3909": 4427, "wait:3910": 4428, "wait:3911": 4429, "wait:3912": 4430, "wait:3913": 4431, "wait:3914": 4432, "wait:3915": 4433, "wait:3916": 4434, "wait:3917": 4435, "wait:3918": 4436, "wait:3919": 4437, "wait:3920": 4438, "wait:3921": 4439, "wait:3922": 4440, "wait:3923": 4441, "wait:3924": 4442, "wait:3925": 4443, "wait:3926": 4444, "wait:3927": 4445, "wait:3928": 4446, "wait:3929": 4447, "wait:3930": 4448, "wait:3931": 4449, "wait:3932": 4450, "wait:3933": 4451, "wait:3934": 4452, "wait:3935": 4453, "wait:3936": 4454, "wait:3937": 4455, "wait:3938": 4456, "wait:3939": 4457, "wait:3940": 4458, "wait:3941": 4459, "wait:3942": 4460, "wait:3943": 4461, "wait:3944": 4462, "wait:3945": 4463, "wait:3946": 4464, "wait:3947": 4465, "wait:3948": 4466, "wait:3949": 4467, "wait:3950": 4468, "wait:3951": 4469, "wait:3952": 4470, "wait:3953": 4471, "wait:3954": 4472, "wait:3955": 4473, "wait:3956": 4474, "wait:3957": 4475, "wait:3958": 4476, "wait:3959": 4477, "wait:3960": 4478, "wait:3961": 4479, "wait:3962": 4480, "wait:3963": 4481, "wait:3964": 4482, "wait:3965": 4483, "wait:3966": 4484, "wait:3967": 4485, "wait:3968": 4486, "wait:3969": 4487, "wait:3970": 4488, "wait:3971": 4489, "wait:3972": 4490, "wait:3973": 4491, "wait:3974": 4492, "wait:3975": 4493, "wait:3976": 4494, "wait:3977": 4495, "wait:3978": 4496, "wait:3979": 4497, "wait:3980": 4498, "wait:3981": 4499, "wait:3982": 4500, "wait:3983": 4501, "wait:3984": 4502, "wait:3985": 4503, "wait:3986": 4504, "wait:3987": 4505, "wait:3988": 4506, "wait:3989": 4507, "wait:3990": 4508, "wait:3991": 4509, "wait:3992": 4510, "wait:3993": 4511, "wait:3994": 4512, "wait:3995": 4513, "wait:3996": 4514, "wait:3997": 4515, "wait:3998": 4516, "wait:3999": 4517, "wait:4000": 4518, "wait:4001": 4519, "wait:4002": 4520, "wait:4003": 4521, "wait:4004": 4522, "wait:4005": 4523, "wait:4006": 4524, "wait:4007": 4525, "wait:4008": 4526, "wait:4009": 4527, "wait:4010": 4528, "wait:4011": 4529, "wait:4012": 4530, "wait:4013": 4531, "wait:4014": 4532, "wait:4015": 4533, "wait:4016": 4534, "wait:4017": 4535, "wait:4018": 4536, "wait:4019": 4537, "wait:4020": 4538, "wait:4021": 4539, "wait:4022": 4540, "wait:4023": 4541, "wait:4024": 4542, "wait:4025": 4543, "wait:4026": 4544, "wait:4027": 4545, "wait:4028": 4546, "wait:4029": 4547, "wait:4030": 4548, "wait:4031": 4549, "wait:4032": 4550, "wait:4033": 4551, "wait:4034": 4552, "wait:4035": 4553, "wait:4036": 4554, "wait:4037": 4555, "wait:4038": 4556, "wait:4039": 4557, "wait:4040": 4558, "wait:4041": 4559, "wait:4042": 4560, "wait:4043": 4561, "wait:4044": 4562, "wait:4045": 4563, "wait:4046": 4564, "wait:4047": 4565, "wait:4048": 4566, "wait:4049": 4567, "wait:4050": 4568, "wait:4051": 4569, "wait:4052": 4570, "wait:4053": 4571, "wait:4054": 4572, "wait:4055": 4573, "wait:4056": 4574, "wait:4057": 4575, "wait:4058": 4576, "wait:4059": 4577, "wait:4060": 4578, "wait:4061": 4579, "wait:4062": 4580, "wait:4063": 4581, "wait:4064": 4582, "wait:4065": 4583, "wait:4066": 4584, "wait:4067": 4585, "wait:4068": 4586, "wait:4069": 4587, "wait:4070": 4588, "wait:4071": 4589, "wait:4072": 4590, "wait:4073": 4591, "wait:4074": 4592, "wait:4075": 4593, "wait:4076": 4594, "wait:4077": 4595, "wait:4078": 4596, "wait:4079": 4597, "wait:4080": 4598, "wait:4081": 4599, "wait:4082": 4600, "wait:4083": 4601, "wait:4084": 4602, "wait:4085": 4603, "wait:4086": 4604, "wait:4087": 4605, "wait:4088": 4606, "wait:4089": 4607, "wait:4090": 4608, "wait:4091": 4609, "wait:4092": 4610, "wait:4093": 4611, "wait:4094": 4612, "wait:4095": 4613, "wait:4096": 4614, "wait:4097": 4615, "wait:4098": 4616, "wait:4099": 4617, "wait:4100": 4618, "wait:4101": 4619, "wait:4102": 4620, "wait:4103": 4621, "wait:4104": 4622, "wait:4105": 4623, "wait:4106": 4624, "wait:4107": 4625, "wait:4108": 4626, "wait:4109": 4627, "wait:4110": 4628, "wait:4111": 4629, "wait:4112": 4630, "wait:4113": 4631, "wait:4114": 4632, "wait:4115": 4633, "wait:4116": 4634, "wait:4117": 4635, "wait:4118": 4636, "wait:4119": 4637, "wait:4120": 4638, "wait:4121": 4639, "wait:4122": 4640, "wait:4123": 4641, "wait:4124": 4642, "wait:4125": 4643, "wait:4126": 4644, "wait:4127": 4645, "wait:4128": 4646, "wait:4129": 4647, "wait:4130": 4648, "wait:4131": 4649, "wait:4132": 4650, "wait:4133": 4651, "wait:4134": 4652, "wait:4135": 4653, "wait:4136": 4654, "wait:4137": 4655, "wait:4138": 4656, "wait:4139": 4657, "wait:4140": 4658, "wait:4141": 4659, "wait:4142": 4660, "wait:4143": 4661, "wait:4144": 4662, "wait:4145": 4663, "wait:4146": 4664, "wait:4147": 4665, "wait:4148": 4666, "wait:4149": 4667, "wait:4150": 4668, "wait:4151": 4669, "wait:4152": 4670, "wait:4153": 4671, "wait:4154": 4672, "wait:4155": 4673, "wait:4156": 4674, "wait:4157": 4675, "wait:4158": 4676, "wait:4159": 4677, "wait:4160": 4678, "wait:4161": 4679, "wait:4162": 4680, "wait:4163": 4681, "wait:4164": 4682, "wait:4165": 4683, "wait:4166": 4684, "wait:4167": 4685, "wait:4168": 4686, "wait:4169": 4687, "wait:4170": 4688, "wait:4171": 4689, "wait:4172": 4690, "wait:4173": 4691, "wait:4174": 4692, "wait:4175": 4693, "wait:4176": 4694, "wait:4177": 4695, "wait:4178": 4696, "wait:4179": 4697, "wait:4180": 4698, "wait:4181": 4699, "wait:4182": 4700, "wait:4183": 4701, "wait:4184": 4702, "wait:4185": 4703, "wait:4186": 4704, "wait:4187": 4705, "wait:4188": 4706, "wait:4189": 4707, "wait:4190": 4708, "wait:4191": 4709, "wait:4192": 4710, "wait:4193": 4711, "wait:4194": 4712, "wait:4195": 4713, "wait:4196": 4714, "wait:4197": 4715, "wait:4198": 4716, "wait:4199": 4717, "wait:4200": 4718, "wait:4201": 4719, "wait:4202": 4720, "wait:4203": 4721, "wait:4204": 4722, "wait:4205": 4723, "wait:4206": 4724, "wait:4207": 4725, "wait:4208": 4726, "wait:4209": 4727, "wait:4210": 4728, "wait:4211": 4729, "wait:4212": 4730, "wait:4213": 4731, "wait:4214": 4732, "wait:4215": 4733, "wait:4216": 4734, "wait:4217": 4735, "wait:4218": 4736, "wait:4219": 4737, "wait:4220": 4738, "wait:4221": 4739, "wait:4222": 4740, "wait:4223": 4741, "wait:4224": 4742, "wait:4225": 4743, "wait:4226": 4744, "wait:4227": 4745, "wait:4228": 4746, "wait:4229": 4747, "wait:4230": 4748, "wait:4231": 4749, "wait:4232": 4750, "wait:4233": 4751, "wait:4234": 4752, "wait:4235": 4753, "wait:4236": 4754, "wait:4237": 4755, "wait:4238": 4756, "wait:4239": 4757, "wait:4240": 4758, "wait:4241": 4759, "wait:4242": 4760, "wait:4243": 4761, "wait:4244": 4762, "wait:4245": 4763, "wait:4246": 4764, "wait:4247": 4765, "wait:4248": 4766, "wait:4249": 4767, "wait:4250": 4768, "wait:4251": 4769, "wait:4252": 4770, "wait:4253": 4771, "wait:4254": 4772, "wait:4255": 4773, "wait:4256": 4774, "wait:4257": 4775, "wait:4258": 4776, "wait:4259": 4777, "wait:4260": 4778, "wait:4261": 4779, "wait:4262": 4780, "wait:4263": 4781, "wait:4264": 4782, "wait:4265": 4783, "wait:4266": 4784, "wait:4267": 4785, "wait:4268": 4786, "wait:4269": 4787, "wait:4270": 4788, "wait:4271": 4789, "wait:4272": 4790, "wait:4273": 4791, "wait:4274": 4792, "wait:4275": 4793, "wait:4276": 4794, "wait:4277": 4795, "wait:4278": 4796, "wait:4279": 4797, "wait:4280": 4798, "wait:4281": 4799, "wait:4282": 4800, "wait:4283": 4801, "wait:4284": 4802, "wait:4285": 4803, "wait:4286": 4804, "wait:4287": 4805, "wait:4288": 4806, "wait:4289": 4807, "wait:4290": 4808, "wait:4291": 4809, "wait:4292": 4810, "wait:4293": 4811, "wait:4294": 4812, "wait:4295": 4813, "wait:4296": 4814, "wait:4297": 4815, "wait:4298": 4816, "wait:4299": 4817, "wait:4300": 4818, "wait:4301": 4819, "wait:4302": 4820, "wait:4303": 4821, "wait:4304": 4822, "wait:4305": 4823, "wait:4306": 4824, "wait:4307": 4825, "wait:4308": 4826, "wait:4309": 4827, "wait:4310": 4828, "wait:4311": 4829, "wait:4312": 4830, "wait:4313": 4831, "wait:4314": 4832, "wait:4315": 4833, "wait:4316": 4834, "wait:4317": 4835, "wait:4318": 4836, "wait:4319": 4837, "wait:4320": 4838, "wait:4321": 4839, "wait:4322": 4840, "wait:4323": 4841, "wait:4324": 4842, "wait:4325": 4843, "wait:4326": 4844, "wait:4327": 4845, "wait:4328": 4846, "wait:4329": 4847, "wait:4330": 4848, "wait:4331": 4849, "wait:4332": 4850, "wait:4333": 4851, "wait:4334": 4852, "wait:4335": 4853, "wait:4336": 4854, "wait:4337": 4855, "wait:4338": 4856, "wait:4339": 4857, "wait:4340": 4858, "wait:4341": 4859, "wait:4342": 4860, "wait:4343": 4861, "wait:4344": 4862, "wait:4345": 4863, "wait:4346": 4864, "wait:4347": 4865, "wait:4348": 4866, "wait:4349": 4867, "wait:4350": 4868, "wait:4351": 4869, "wait:4352": 4870, "wait:4353": 4871, "wait:4354": 4872, "wait:4355": 4873, "wait:4356": 4874, "wait:4357": 4875, "wait:4358": 4876, "wait:4359": 4877, "wait:4360": 4878, "wait:4361": 4879, "wait:4362": 4880, "wait:4363": 4881, "wait:4364": 4882, "wait:4365": 4883, "wait:4366": 4884, "wait:4367": 4885, "wait:4368": 4886, "wait:4369": 4887, "wait:4370": 4888, "wait:4371": 4889, "wait:4372": 4890, "wait:4373": 4891, "wait:4374": 4892, "wait:4375": 4893, "wait:4376": 4894, "wait:4377": 4895, "wait:4378": 4896, "wait:4379": 4897, "wait:4380": 4898, "wait:4381": 4899, "wait:4382": 4900, "wait:4383": 4901, "wait:4384": 4902, "wait:4385": 4903, "wait:4386": 4904, "wait:4387": 4905, "wait:4388": 4906, "wait:4389": 4907, "wait:4390": 4908, "wait:4391": 4909, "wait:4392": 4910, "wait:4393": 4911, "wait:4394": 4912, "wait:4395": 4913, "wait:4396": 4914, "wait:4397": 4915, "wait:4398": 4916, "wait:4399": 4917, "wait:4400": 4918, "wait:4401": 4919, "wait:4402": 4920, "wait:4403": 4921, "wait:4404": 4922, "wait:4405": 4923, "wait:4406": 4924, "wait:4407": 4925, "wait:4408": 4926, "wait:4409": 4927, "wait:4410": 4928, "wait:4411": 4929, "wait:4412": 4930, "wait:4413": 4931, "wait:4414": 4932, "wait:4415": 4933, "wait:4416": 4934, "wait:4417": 4935, "wait:4418": 4936, "wait:4419": 4937, "wait:4420": 4938, "wait:4421": 4939, "wait:4422": 4940, "wait:4423": 4941, "wait:4424": 4942, "wait:4425": 4943, "wait:4426": 4944, "wait:4427": 4945, "wait:4428": 4946, "wait:4429": 4947, "wait:4430": 4948, "wait:4431": 4949, "wait:4432": 4950, "wait:4433": 4951, "wait:4434": 4952, "wait:4435": 4953, "wait:4436": 4954, "wait:4437": 4955, "wait:4438": 4956, "wait:4439": 4957, "wait:4440": 4958, "wait:4441": 4959, "wait:4442": 4960, "wait:4443": 4961, "wait:4444": 4962, "wait:4445": 4963, "wait:4446": 4964, "wait:4447": 4965, "wait:4448": 4966, "wait:4449": 4967, "wait:4450": 4968, "wait:4451": 4969, "wait:4452": 4970, "wait:4453": 4971, "wait:4454": 4972, "wait:4455": 4973, "wait:4456": 4974, "wait:4457": 4975, "wait:4458": 4976, "wait:4459": 4977, "wait:4460": 4978, "wait:4461": 4979, "wait:4462": 4980, "wait:4463": 4981, "wait:4464": 4982, "wait:4465": 4983, "wait:4466": 4984, "wait:4467": 4985, "wait:4468": 4986, "wait:4469": 4987, "wait:4470": 4988, "wait:4471": 4989, "wait:4472": 4990, "wait:4473": 4991, "wait:4474": 4992, "wait:4475": 4993, "wait:4476": 4994, "wait:4477": 4995, "wait:4478": 4996, "wait:4479": 4997, "wait:4480": 4998, "wait:4481": 4999, "wait:4482": 5000, "wait:4483": 5001, "wait:4484": 5002, "wait:4485": 5003, "wait:4486": 5004, "wait:4487": 5005, "wait:4488": 5006, "wait:4489": 5007, "wait:4490": 5008, "wait:4491": 5009, "wait:4492": 5010, "wait:4493": 5011, "wait:4494": 5012, "wait:4495": 5013, "wait:4496": 5014, "wait:4497": 5015, "wait:4498": 5016, "wait:4499": 5017, "wait:4500": 5018, "wait:4501": 5019, "wait:4502": 5020, "wait:4503": 5021, "wait:4504": 5022, "wait:4505": 5023, "wait:4506": 5024, "wait:4507": 5025, "wait:4508": 5026, "wait:4509": 5027, "wait:4510": 5028, "wait:4511": 5029, "wait:4512": 5030, "wait:4513": 5031, "wait:4514": 5032, "wait:4515": 5033, "wait:4516": 5034, "wait:4517": 5035, "wait:4518": 5036, "wait:4519": 5037, "wait:4520": 5038, "wait:4521": 5039, "wait:4522": 5040, "wait:4523": 5041, "wait:4524": 5042, "wait:4525": 5043, "wait:4526": 5044, "wait:4527": 5045, "wait:4528": 5046, "wait:4529": 5047, "wait:4530": 5048, "wait:4531": 5049, "wait:4532": 5050, "wait:4533": 5051, "wait:4534": 5052, "wait:4535": 5053, "wait:4536": 5054, "wait:4537": 5055, "wait:4538": 5056, "wait:4539": 5057, "wait:4540": 5058, "wait:4541": 5059, "wait:4542": 5060, "wait:4543": 5061, "wait:4544": 5062, "wait:4545": 5063, "wait:4546": 5064, "wait:4547": 5065, "wait:4548": 5066, "wait:4549": 5067, "wait:4550": 5068, "wait:4551": 5069, "wait:4552": 5070, "wait:4553": 5071, "wait:4554": 5072, "wait:4555": 5073, "wait:4556": 5074, "wait:4557": 5075, "wait:4558": 5076, "wait:4559": 5077, "wait:4560": 5078, "wait:4561": 5079, "wait:4562": 5080, "wait:4563": 5081, "wait:4564": 5082, "wait:4565": 5083, "wait:4566": 5084, "wait:4567": 5085, "wait:4568": 5086, "wait:4569": 5087, "wait:4570": 5088, "wait:4571": 5089, "wait:4572": 5090, "wait:4573": 5091, "wait:4574": 5092, "wait:4575": 5093, "wait:4576": 5094, "wait:4577": 5095, "wait:4578": 5096, "wait:4579": 5097, "wait:4580": 5098, "wait:4581": 5099, "wait:4582": 5100, "wait:4583": 5101, "wait:4584": 5102, "wait:4585": 5103, "wait:4586": 5104, "wait:4587": 5105, "wait:4588": 5106, "wait:4589": 5107, "wait:4590": 5108, "wait:4591": 5109, "wait:4592": 5110, "wait:4593": 5111, "wait:4594": 5112, "wait:4595": 5113, "wait:4596": 5114, "wait:4597": 5115, "wait:4598": 5116, "wait:4599": 5117, "wait:4600": 5118, "wait:4601": 5119, "wait:4602": 5120, "wait:4603": 5121, "wait:4604": 5122, "wait:4605": 5123, "wait:4606": 5124, "wait:4607": 5125, "wait:4608": 5126, "wait:4609": 5127, "wait:4610": 5128, "wait:4611": 5129, "wait:4612": 5130, "wait:4613": 5131, "wait:4614": 5132, "wait:4615": 5133, "wait:4616": 5134, "wait:4617": 5135, "wait:4618": 5136, "wait:4619": 5137, "wait:4620": 5138, "wait:4621": 5139, "wait:4622": 5140, "wait:4623": 5141, "wait:4624": 5142, "wait:4625": 5143, "wait:4626": 5144, "wait:4627": 5145, "wait:4628": 5146, "wait:4629": 5147, "wait:4630": 5148, "wait:4631": 5149, "wait:4632": 5150, "wait:4633": 5151, "wait:4634": 5152, "wait:4635": 5153, "wait:4636": 5154, "wait:4637": 5155, "wait:4638": 5156, "wait:4639": 5157, "wait:4640": 5158, "wait:4641": 5159, "wait:4642": 5160, "wait:4643": 5161, "wait:4644": 5162, "wait:4645": 5163, "wait:4646": 5164, "wait:4647": 5165, "wait:4648": 5166, "wait:4649": 5167, "wait:4650": 5168, "wait:4651": 5169, "wait:4652": 5170, "wait:4653": 5171, "wait:4654": 5172, "wait:4655": 5173, "wait:4656": 5174, "wait:4657": 5175, "wait:4658": 5176, "wait:4659": 5177, "wait:4660": 5178, "wait:4661": 5179, "wait:4662": 5180, "wait:4663": 5181, "wait:4664": 5182, "wait:4665": 5183, "wait:4666": 5184, "wait:4667": 5185, "wait:4668": 5186, "wait:4669": 5187, "wait:4670": 5188, "wait:4671": 5189, "wait:4672": 5190, "wait:4673": 5191, "wait:4674": 5192, "wait:4675": 5193, "wait:4676": 5194, "wait:4677": 5195, "wait:4678": 5196, "wait:4679": 5197, "wait:4680": 5198, "wait:4681": 5199, "wait:4682": 5200, "wait:4683": 5201, "wait:4684": 5202, "wait:4685": 5203, "wait:4686": 5204, "wait:4687": 5205, "wait:4688": 5206, "wait:4689": 5207, "wait:4690": 5208, "wait:4691": 5209, "wait:4692": 5210, "wait:4693": 5211, "wait:4694": 5212, "wait:4695": 5213, "wait:4696": 5214, "wait:4697": 5215, "wait:4698": 5216, "wait:4699": 5217, "wait:4700": 5218, "wait:4701": 5219, "wait:4702": 5220, "wait:4703": 5221, "wait:4704": 5222, "wait:4705": 5223, "wait:4706": 5224, "wait:4707": 5225, "wait:4708": 5226, "wait:4709": 5227, "wait:4710": 5228, "wait:4711": 5229, "wait:4712": 5230, "wait:4713": 5231, "wait:4714": 5232, "wait:4715": 5233, "wait:4716": 5234, "wait:4717": 5235, "wait:4718": 5236, "wait:4719": 5237, "wait:4720": 5238, "wait:4721": 5239, "wait:4722": 5240, "wait:4723": 5241, "wait:4724": 5242, "wait:4725": 5243, "wait:4726": 5244, "wait:4727": 5245, "wait:4728": 5246, "wait:4729": 5247, "wait:4730": 5248, "wait:4731": 5249, "wait:4732": 5250, "wait:4733": 5251, "wait:4734": 5252, "wait:4735": 5253, "wait:4736": 5254, "wait:4737": 5255, "wait:4738": 5256, "wait:4739": 5257, "wait:4740": 5258, "wait:4741": 5259, "wait:4742": 5260, "wait:4743": 5261, "wait:4744": 5262, "wait:4745": 5263, "wait:4746": 5264, "wait:4747": 5265, "wait:4748": 5266, "wait:4749": 5267, "wait:4750": 5268, "wait:4751": 5269, "wait:4752": 5270, "wait:4753": 5271, "wait:4754": 5272, "wait:4755": 5273, "wait:4756": 5274, "wait:4757": 5275, "wait:4758": 5276, "wait:4759": 5277, "wait:4760": 5278, "wait:4761": 5279, "wait:4762": 5280, "wait:4763": 5281, "wait:4764": 5282, "wait:4765": 5283, "wait:4766": 5284, "wait:4767": 5285, "wait:4768": 5286, "wait:4769": 5287, "wait:4770": 5288, "wait:4771": 5289, "wait:4772": 5290, "wait:4773": 5291, "wait:4774": 5292, "wait:4775": 5293, "wait:4776": 5294, "wait:4777": 5295, "wait:4778": 5296, "wait:4779": 5297, "wait:4780": 5298, "wait:4781": 5299, "wait:4782": 5300, "wait:4783": 5301, "wait:4784": 5302, "wait:4785": 5303, "wait:4786": 5304, "wait:4787": 5305, "wait:4788": 5306, "wait:4789": 5307, "wait:4790": 5308, "wait:4791": 5309, "wait:4792": 5310, "wait:4793": 5311, "wait:4794": 5312, "wait:4795": 5313, "wait:4796": 5314, "wait:4797": 5315, "wait:4798": 5316, "wait:4799": 5317, "wait:4800": 5318, "wait:4801": 5319, "wait:4802": 5320, "wait:4803": 5321, "wait:4804": 5322, "wait:4805": 5323, "wait:4806": 5324, "wait:4807": 5325, "wait:4808": 5326, "wait:4809": 5327, "wait:4810": 5328, "wait:4811": 5329, "wait:4812": 5330, "wait:4813": 5331, "wait:4814": 5332, "wait:4815": 5333, "wait:4816": 5334, "wait:4817": 5335, "wait:4818": 5336, "wait:4819": 5337, "wait:4820": 5338, "wait:4821": 5339, "wait:4822": 5340, "wait:4823": 5341, "wait:4824": 5342, "wait:4825": 5343, "wait:4826": 5344, "wait:4827": 5345, "wait:4828": 5346, "wait:4829": 5347, "wait:4830": 5348, "wait:4831": 5349, "wait:4832": 5350, "wait:4833": 5351, "wait:4834": 5352, "wait:4835": 5353, "wait:4836": 5354, "wait:4837": 5355, "wait:4838": 5356, "wait:4839": 5357, "wait:4840": 5358, "wait:4841": 5359, "wait:4842": 5360, "wait:4843": 5361, "wait:4844": 5362, "wait:4845": 5363, "wait:4846": 5364, "wait:4847": 5365, "wait:4848": 5366, "wait:4849": 5367, "wait:4850": 5368, "wait:4851": 5369, "wait:4852": 5370, "wait:4853": 5371, "wait:4854": 5372, "wait:4855": 5373, "wait:4856": 5374, "wait:4857": 5375, "wait:4858": 5376, "wait:4859": 5377, "wait:4860": 5378, "wait:4861": 5379, "wait:4862": 5380, "wait:4863": 5381, "wait:4864": 5382, "wait:4865": 5383, "wait:4866": 5384, "wait:4867": 5385, "wait:4868": 5386, "wait:4869": 5387, "wait:4870": 5388, "wait:4871": 5389, "wait:4872": 5390, "wait:4873": 5391, "wait:4874": 5392, "wait:4875": 5393, "wait:4876": 5394, "wait:4877": 5395, "wait:4878": 5396, "wait:4879": 5397, "wait:4880": 5398, "wait:4881": 5399, "wait:4882": 5400, "wait:4883": 5401, "wait:4884": 5402, "wait:4885": 5403, "wait:4886": 5404, "wait:4887": 5405, "wait:4888": 5406, "wait:4889": 5407, "wait:4890": 5408, "wait:4891": 5409, "wait:4892": 5410, "wait:4893": 5411, "wait:4894": 5412, "wait:4895": 5413, "wait:4896": 5414, "wait:4897": 5415, "wait:4898": 5416, "wait:4899": 5417, "wait:4900": 5418, "wait:4901": 5419, "wait:4902": 5420, "wait:4903": 5421, "wait:4904": 5422, "wait:4905": 5423, "wait:4906": 5424, "wait:4907": 5425, "wait:4908": 5426, "wait:4909": 5427, "wait:4910": 5428, "wait:4911": 5429, "wait:4912": 5430, "wait:4913": 5431, "wait:4914": 5432, "wait:4915": 5433, "wait:4916": 5434, "wait:4917": 5435, "wait:4918": 5436, "wait:4919": 5437, "wait:4920": 5438, "wait:4921": 5439, "wait:4922": 5440, "wait:4923": 5441, "wait:4924": 5442, "wait:4925": 5443, "wait:4926": 5444, "wait:4927": 5445, "wait:4928": 5446, "wait:4929": 5447, "wait:4930": 5448, "wait:4931": 5449, "wait:4932": 5450, "wait:4933": 5451, "wait:4934": 5452, "wait:4935": 5453, "wait:4936": 5454, "wait:4937": 5455, "wait:4938": 5456, "wait:4939": 5457, "wait:4940": 5458, "wait:4941": 5459, "wait:4942": 5460, "wait:4943": 5461, "wait:4944": 5462, "wait:4945": 5463, "wait:4946": 5464, "wait:4947": 5465, "wait:4948": 5466, "wait:4949": 5467, "wait:4950": 5468, "wait:4951": 5469, "wait:4952": 5470, "wait:4953": 5471, "wait:4954": 5472, "wait:4955": 5473, "wait:4956": 5474, "wait:4957": 5475, "wait:4958": 5476, "wait:4959": 5477, "wait:4960": 5478, "wait:4961": 5479, "wait:4962": 5480, "wait:4963": 5481, "wait:4964": 5482, "wait:4965": 5483, "wait:4966": 5484, "wait:4967": 5485, "wait:4968": 5486, "wait:4969": 5487, "wait:4970": 5488, "wait:4971": 5489, "wait:4972": 5490, "wait:4973": 5491, "wait:4974": 5492, "wait:4975": 5493, "wait:4976": 5494, "wait:4977": 5495, "wait:4978": 5496, "wait:4979": 5497, "wait:4980": 5498, "wait:4981": 5499, "wait:4982": 5500, "wait:4983": 5501, "wait:4984": 5502, "wait:4985": 5503, "wait:4986": 5504, "wait:4987": 5505, "wait:4988": 5506, "wait:4989": 5507, "wait:4990": 5508, "wait:4991": 5509, "wait:4992": 5510, "wait:4993": 5511, "wait:4994": 5512, "wait:4995": 5513, "wait:4996": 5514, "wait:4997": 5515, "wait:4998": 5516, "wait:4999": 5517, "wait:5000": 5518, "[0]": 5519, "[1]": 5520, "[2]": 5521, "[3]": 5522, "[4]": 5523, "[5]": 5524, "[6]": 5525, "[7]": 5526, "[8]": 5527, "[9]": 5528, "[10]": 5529, "[11]": 5530, "[12]": 5531, "[13]": 5532, "[14]": 5533, "[15]": 5534, "[16]": 5535, "[17]": 5536, "[18]": 5537, "[19]": 5538, "[20]": 5539, "[21]": 5540, "[22]": 5541, "[23]": 5542, "[24]": 5543, "[25]": 5544, "[26]": 5545, "[27]": 5546, "[28]": 5547, "[29]": 5548, "[30]": 5549, "[31]": 5550, "[32]": 5551, "[33]": 5552, "[34]": 5553, "[35]": 5554, "[36]": 5555, "[37]": 5556, "[38]": 5557, "[39]": 5558, "[40]": 5559, "[41]": 5560, "[42]": 5561, "[43]": 5562, "[44]": 5563, "[45]": 5564, "[46]": 5565, "[47]": 5566, "[48]": 5567, "[49]": 5568, "[50]": 5569, "[51]": 5570, "[52]": 5571, "[53]": 5572, "[54]": 5573, "[55]": 5574, "[56]": 5575, "[57]": 5576, "[58]": 5577, "[59]": 5578, "[60]": 5579, "[61]": 5580, "[62]": 5581, "[63]": 5582, "[64]": 5583, "[65]": 5584, "[66]": 5585, "[67]": 5586, "[68]": 5587, "[69]": 5588, "[70]": 5589, "[71]": 5590, "[72]": 5591, "[73]": 5592, "[74]": 5593, "[75]": 5594, "[76]": 5595, "[77]": 5596, "[78]": 5597, "[79]": 5598, "[80]": 5599, "[81]": 5600, "[82]": 5601, "[83]": 5602, "[84]": 5603, "[85]": 5604, "[86]": 5605, "[87]": 5606, "[88]": 5607, "[89]": 5608, "[90]": 5609, "[91]": 5610, "[92]": 5611, "[93]": 5612, "[94]": 5613, "[95]": 5614, "[96]": 5615, "[97]": 5616, "[98]": 5617, "[99]": 5618, "[100]": 5619, "[101]": 5620, "[102]": 5621, "[103]": 5622, "[104]": 5623, "[105]": 5624, "[106]": 5625, "[107]": 5626, "[108]": 5627, "[109]": 5628, "[110]": 5629, "[111]": 5630, "[112]": 5631, "[113]": 5632, "[114]": 5633, "[115]": 5634, "[116]": 5635, "[117]": 5636, "[118]": 5637, "[119]": 5638, "[120]": 5639, "[121]": 5640, "[122]": 5641, "[123]": 5642, "[124]": 5643, "[125]": 5644, "[126]": 5645, "[127]": 5646}